e r
a n
i n
t h
a t
r e
o n
s t
a r
o r
i t
a l
] ]
[ [
e n
  th
e s
2 0
 th e
l e
i c
  o
u r
i s
c h
e d
  a
 o f
i on
an d
i v
   
o m
  w
h t
  c
  in
at e
  s
  t
re f
in g
  p
  f
  b
  and
iv e
a m
} }
e b
{ {
o l
a s
en t
  20
t p
u s
/ /
ht tp
: //
i l
w w
ar ch
a c
u n
ur l
  S
d ate
r o
  A
  m
  C
' '
d e
at ion
i r
l a
1 9
  n
arch ive
e l
  h
it e
 t o
http s
i g
  T
w eb
e m
  M
a g
c t
e t
i st
     
= =
]] ,
u l
< /
h e
  d
i d
a d
  P
es s
i m
er s
it le
u m
u t
e w
1 0
o o
o p
  re
c om
  l
> {{
ww w
t itle
  B
al l
u b
}} </
is h
  I
b er
i a
  e
o v
c e
o w
  R
or g
r a
i an
  1
a y
. <
o t
  D
c ess
am e
ir st
  F
  is
o c
  N
it y
  E
ar t
  J
  g
ar y
o s
  H
 20 1
la st
t er
e c
 f or
  st
  G
  L
re s
ac cess
0 0
o ur
an g
i es
c ite
ub l
20 1
ag e
  W
 a s
a p
i th
f irst
l y
= "
o un
e st
  19
  on
 20 2
or t
ew s
a b
 n ame
 w eb
i p
u g
i f
  O
o g
u st
  de
oo k
20 2
 T he
st at
  2
e ar
a v
or y
u p
 b y
 w h
 b e
em ber
p ubl
  U
' s
T he
a in
r om
 w ith
  v
 c on
in e
 I n
stat us
 a re
a k
m ent
m er
er n
 S t
20 0
e p
ar d
q u
1 1
ish er
u th
r an
v er
r i
il l
  an
o re
or d
  K
ic h
 w as
o d
s p
u re
er e
publ isher
 p ro

 

i al
a st
) ,
) |
  al
l d
i le
u d
3 0
or k
 f rom
         
ic an
  or
 c om
1 2
ig ht
th er
en d
== =
ic al
r y
 th at
  r
1 8
C ite
 C h
t e
l ive
t s
u e
u ary
ht m
  at
c l
p h
y ear
l and
n al
u c
o st
ct ion
 20 0
or ld
  it
on g
is s
f f
en s
o us
s ite
oun t
g e
ation al
ang u
n ews
 e x
ig n
un d
  V
i e
]] .
 U n
at es
m an
1 5
at ed
| |
ul t
p r
web site
s e
our nal
b r
an t
I n
1 4
ac k
i z
i re
en ce
angu age
el l
or n
as s
1 6
p ort
s h
r ic
it ion
t o
7 8
c on
htm l
res s
  ch
1 3
/ >
2 2
mer ican
b ook
all y
la y
p er
ol og
p l
  le
  j
e y
o ber
i k
e ct
1 7
r it
o b
ic e
it ed
u k
th e
i de
iv ers
p g
uth or
ic s
ac t
e x
ation s
| -
n g
s o
'' '
5 0
c o
4 0
ag es
on d
re e
a th
e v
es e
  us
C h
i b
re n
  3
book s
ar k
'' [[
]] ''
 b ook
g ov
8 0
r al
 wh ich
a ch
c i
in d
 A merican
" >{{
ow n
p p
um b
ac e
f or
  k
 s e
at er
2 3
 s p
* [[
av e
= [[
o ut
a z
2 5
en c
im e
b all
7 0
op e
un e
A n
ist ory
 T h
2 4
6 0
ct ober
F ile
a re
 1 8
an uary
t ion
 s h
l es
oun d
ol d
ate g
ul y
  un
er v
oo t
  im
art ic
om e
u ch
l in
  Y
a uthor
 f irst
w ork
 al so
> <
 com p
9 0
ro w
ig h
le d
c ent
pr il
 h as
l anguage
w e
am p
ivers ity
| [[
a il
op ul
2 6
ug ust
9 78
 w ere
ec ember
ug h
l ish
ab le
 n ews
j pg
ep t
b n
d f
o f
S t
 con t
i o
d o
o uth
 n ot
2 7
ion s
i et
an ce
oo d
2 8
s s
* *
 a c
it ies
e op
an n
2 9
ol it
eb r
 h ave
t on
v ol
e g
ent s
ateg ory
 202 3
ov ember
a w
]] .<
e f
A A
ept ember
a h
 h e
olog y
ter n
th umb
 c ol
an s
en er
v el
e le
 it s
an y
 20 20
ebr uary
  4
n b
o h
m s
or th
 c l
as h
 p lay
 p er
 202 2
im es
is bn
b orn
 202 1
r u
U n
eop le
- -
en g
10 0
) .
oot ball
 St ates
C ategory
l oc
y le
is m
ar g
al s
m all
a de
n e
 j ournal
p df
il d
 c ent
 20 19
f t
r on
 a d
 A r
ur ope
um e
 the ir
p ages
in s
00 0
 in cl
e e
ra ph
id ent
m on
y p
19 9
 202 4
  year
ic k
as e
or s
at ive
  5
in a
g le
ing s
  ro
ur y
el d
ol l
2 1
a u
y st
 e le
  la
ov ern
am es
 p l
p ro
re d
ust ral
20 19
 c ount
v i
 A n
o y
w ay
d u
de ad
c ord
 p opul
oo gle
3 3
 M ay
 a b
l i
 N ew
p age
c ol
r ist
 E ng
a j
 Un ited
k s
 a ct
ut ion
an c
 O ctober
f ter
 m e
  6
 C om
 201 8
s c
la g
o ol
if ic
]] )
on e
us e
4 5
w orld
 on e
in t
  all
r ad
ur ing
g oogle
a i
do i
er t
on s
 M arch
us ic
en n
 o ther
er man
 J anuary
 J uly
 In d
 h is
       
yst em
ic a
 I t
f er
 re s
 re g
st it
 A pril
o x
  7
r ight
o u
 d es
at a
3 5
 s uch
ur al
 b ut
j ournal
o k
og raph
for m
 p art
  10
m in
ak e
 p eople
r am
. .
tern ational
 A l
 d is
y s
 st ate
u al
ri b
 m ost
 S h
ro und
 c o
y m
 Un iversity
it or
 A ugust
em b
at t
ran s
 a g
ed ia
ow er
 t e
il m
 19 9
4 6
 c an
 p r
w o
 re l
 st yle
  ar
 t itle
is ion
 D ecember
3 6
 201 7
 J une
  8
s mall
 p re
 th is
 h igh
3 8
0 4
re at
 o ver
 s c
. |
x t
us s
ar s
 201 3
er y
at ure
4 8
t en
  ra
 m ore
b y
an ad
 be en
in ce
0 1
0 8
ur n
vol ume
202 4
/ |
m y
an k
om an
al e
7 5
A l
c es
k y
d uc
s on
4 9
 c ity
ic t
oh n
e al
o de
ch ool
in n
f l
0 3
p x
 P ress
 S eptember
 l anguage
artic le
 of f
 f ootball
0 6
 201 4
nb sp
ist or
s f
202 2
P A
 N ovember
overn ment
 201 6
r ip
p t
 in to
 t er


 The
 s ub
ul d
y n
3 9
l ine
 wh o
0 5
re g
m un
 d o
ed u
A r
U S
S h
0 9
 us ed
 W orld
i ed
o th
 F ebruary
 h ad
w n
i er
 C on
  9
 E urope
k et
 p ubl
d is
 n e
a ir
ens us
er ed
res ident
r is
um ber
sh ip
as ed
a x
 20 10
ed itor
on y
 incl ud
i x
und er
 b et
ro p
 for m
we en
b b
a f
 201 5
20 20
  Z
19 8
w ard
 201 2
3 1
0 7
ro up
 k n
ar n
ous e
5 5
 a pp
ay s
 I s
201 8
 th an
v ent
u res
i eld
ar ly
 P ro
'' ,
em ent
 con s
at ch
4 4
in al
3 7
 w orld
i um
loc ation
if e
  ref
 201 1
le y
os e
202 3
c re
l o
ol ic
v e
os s
publ ic
" />
c c
iss ue
 A ustral
ion al
it al
 l oc
 a fter
 B rit
 o ut
M ay
et t
l ang
iv er
j ect
 popul ation
 Y ork
s y
 t wo
 1 7
 sp ec
 S p
am b
ot e
T h
ro ugh
it s
ver t
al ign
um an
4 7
oc k
sf n
r at
h il
oc i
 the y
 19 8
 c ap
iv es
]] |
 R e
== ==
m p
 bet ween
 C ol
it ation
0 2
 m ay
is e
p end
sp ort
 d ist
 p olit
i ous
t r
 t ime
n d
res ent
le t
con om
J anuary
art y
6 5
r ies
vel op
w h
te xt
enc y
L ist
ci ence
ang e
 1 5
Un ited
n a
  up
er ies
 s ystem
h ar
. {{
am il
ian s
 t ra
o ugh
 are a
 Eng lish
 1 6
202 1
O ctober
  under
N ew
 e st
 re cord
 C ount
. </
ap an
" |
ec ond
u de
 s ome
as on
 in d
ist s
M arch
 w ork
f ord
im ate
D ecember
J une
in ess
 W ar
  y
ur ch
 cent ury
ers on
  en
oun c
de x
ener al
  em
  last
a e
p ap
le g
3 4
in es
ch n
  https
 s erv
m e
er b
6 8
ult ure
lin k
c a
ci ent
l ob
 b ec
ond on
 th rough
in k
aj or
 m any
A ugust
20 10
et s
b e
at ing
J uly
p or
 G erman
land s
  art
 S outh
 L e
ot t
cent er
 d uring
er al
B C
 play er
( [[
B A
us iness
ction s
A pril
p os
ill ion
c ip
N ovember
 n ew
p s
 year s
enc es
an ia
  url
 de velop
ik e
6 7
ic tion
k e
g round
n am
v en
 kn own
 at t
m id
 200 9
al es
 f ilm
i am
h an
5 9
  date
 l arg
 C anad
 de f
F ebruary
ran k
  qu
 b u
3 2
 f ound
 200 8
S eptember
ut e
 in ter
ire ct
 as s
f r
 Th is
c y
ric t
e ver
 m an
 N ews
 on ly
d er
r ation
 C ity
u z
201 7
 C al
 F or
i j
sp an
5 8
 H istory
o uld
vi ew
 A s
 W h
 C ent
 g overnment
 s ur
z e
 pro v
th ony
 St ate
 a m
  Q
           
il it
bb c
7 7
6 9
 le ad
om en
ment s
t al
) ]]
 c al
4 2
      
ip p
b l
201 4
od ern
" ,
ren ch
d om
ag ue
 P ol
o ff
 st ud
| {{
it t
st ru
m ain
 1 1
ib le
 s up
er g
 count ry
iv al
 O r
port s
n ame
u ation
 v ar
ro ss


 In
m ed
am ent
iet y
p en
ag az
ic es
ov e
 s ing
201 6
 1 2
l or
 p h
f lag
g u
il ity
An thony
p lay
iz ation
 m usic
 d if
 H e
201 2
ist er
 wh en
5 7
6 6
st ate
oc ial
 ab out
con t
b an
ord er
 1 4
ist ics
re t
ack ground
 G u
 200 7
  ed
use um
c ount
ing ton
 m in
a ther
ar li
oll ow
 th ere
 te am
 f l
 us e
o ther
op h
C on
J ohn
 includ ing
v ir
 1 3
yp e
un g
200 8
le ct
  end
201 5
ur g
4 3
agaz ine
7 9
u ally
201 1
 M ar
201 3
 ex p
al t
200 7
r ol
 Brit ish
 s o
ab lish
f ore
W h
ar m
in dex
 p o
ul l
y d
 Count y
ar th
        
ac y
  ent
ic ial
n ow
n et
M ain
re en
iz e
ap ter
 K ing
 in t
}} ,
p le
 h er
h istory
 wh ere
 n umber
 N orth
or m
R e
est ern
 s ign
de pend
 m ajor
 l ow
=" :
lob al
olog ical
ic ian
n o
 im age
! --
ut s
con vert
al th
  0
 b as
t ail
il es
iz ed
ak ing
ov er
ober t
200 9
 P l
n ey
i ew
5 6
 C l
org an
u es
N ational
 m ain
ic on
 cl ass
du ction
 E x
ograph y
i od
M ar
ct ure
n y
ilit ary
, <
ounc il
) ]],
ex t
v al
 A ss
S p
l ist
 Ch rist
ren t
el y
]] :
P ro
ic ally
 g roup
er ry
rad ition
ar l
 l and
ar ge
ak es
pap er
In d
 f e
A merican
re w
id ge
 E n
 be ing
if orn
c id
 w ater
 incl ude
r ian
 m on
-- >
ul ar
b um
5 4
qu e
C om
ug ht
 wh ile
an ts
at or
 n ational
m ar
 be g
]] ]]
iv ed
]] <
f ess
 des c
cl op
  30
b our
7 6
iforn ia
d ition
 est ablish
amb ig
b s
 N ational
C ol
 dif fer
l ack
h am
F A
 h istory
8 8
it er
 A ir
 w ell
ph p
 t rans
or on
ambig uation
 A d
g o
artic les
 of ten
 th ree
 ac cess
 2 1
l ing
s k
d ay
 th ese
< !--
9 9
 s econd
on es
 n o
 J apan
iv en
ight s
 or ig
el f
ir d
]]'' ,
in ed
com e
le ge
du ct
dis ambiguation
 2 5
 a ir
iv ing
g ram
le x
 ex t
 f ollow
 cal led
 ne ed
le ft
r and
I S
f a
re st
v ed
an a
re l
 larg est
          
  archive
or ies
G e
br ary
el s
al ity
our t
es p
r in
 s chool
 se ver
uc k
7 3
5 3
as es
 I I
4 1
5 2
 Austral ia
at s
7 2
iv il
iss ion
i ally
 O n
r ish
iet nam
stit ution
 b oth
 t r
 ele ct
 F ran
ro ad
i or
ist an
oc rat
ree k
 m ov
er a
 bec ame
 ref er
 ag ain
o ard
 2 8
 la w
ill iam
 C up
202 10
t y
 S c
 re p
ra in
h a
 A mer
uc ky
k m
> [
av id
200 6
 2 4
om in
u x
 de c
 s ince
v g
 P ubl
 to wn
 Ind ian
 w rit
 a uthor
 2 6
ex as
an ish
ard ian
 B e
 o cc
id a
 P arty
o le
y l
 m ed
s up
in ter
ent ucky
 col or
 m ade
5 1
 S e
b ackground
ff ect
an e
 M in
 ch ar
st e
 ele ction
g in
form ation
 com mon
d le
 T imes
 m et
ult ural
 In ternational
vir on
 in cre
har v
 e arly
 Europe an
oc iety
9 8

 The
ag o
 le g
n ew
amp ion
id th
 A c
 the m
a use
R obert
ar a
de tail
amil y
en e
6 4
 d iv
 2 3
st er
 A g
r um
ac es
 s outh
v ers
oci ation
 Ind ia
t op
 w ould
on t
d ata
S outh
 R ev
W orld
 com mun
 Com p
us h
J os
ow ever
 e conom
 200 6
row n
o e
 v ol
se arch
v est
an i
co de
v il
clop edia
ran sport
 l ong
 publ ic
et er
 sever al
 cont in
E n
 F rench
 2 7
 for mer
 an n
 w ill
b or
 U S
ac ter
at in
B BC
t ain
 count ries
 p ower
v ision
ir th
p ress
t imes
E ng
d oc
l er
202 30
ad s
 s eries
7 1
news paper
or por
 A f
b el
Un iversity
 c re


 A
sy ch
ch apter
 cont rol
 n orth
 R uss
om b
 an y
An d
 R oman
ig ion
 g ame
ra z
 2 9
h ip
com p
 Eng land
. "
 polit ician
 A t
 Ch ina
ert ain
 h istor
200 5
in f
 S w
 is s
6 2
 l arge
a ul
c ity
R ef
st ory
 pro duc
viron ment
in ese
 2 2
 des ign
ket ball
 re sp
un t
arli ament
 b el
7 4
]] '
a ut
o is
 o per
ard s
 ar ound
c n
v es
it es
al d
amp le
6 3
  organ
L e
am a
W eb
200 4
 d irect
 P ark
BA J
o ch
u ff
 f our
 act or
 me an
er ing
iction ary
 w e
 are as
 L ondon
 M iss
 differ ent
 s mall
ac ts
 c ar
p art
 p artic
l s
ast ern
 t radition
t il
ow a
emb ers
ist rict
 R ep
a el
m i
P ol
 Canad a
at ural
flag icon
A d
min ist
 M an
 Amer ica
ot s
ep h
 h uman
is ed
 st r
la w
ow s
 n ear
ath olic
 m ark
 o wn
f e
g han
r ia
 g o
opul ation
 R iver
c k
b le
gin ia
 s im
ain t
I D
on om
 bu ild
 l ater
a us
t est
 c ur
u an
th od
c ap
ur a
 c ities
p olit
; "
d iv
8 6
 reg ion
 st ates
od ay
un n
 be fore
uc ation
t i
            
8 9
20 00
s vg
 m odern
r ime
m a
s ub
 g ener
 T e
 per iod
 e v
: #
qu ote
ce pt
 re le
R oman
 t yp
Ch rist
m ath
l am
 Ch urch
  eng
 R eg
 Cal ifornia
detail s
 th en
 establish ed
m it
'' .
n ot
if ied
ubl in
as px
cont ent
az z
 d ays
 st at
cord ing
c ensus
I s
g r
b i
 G e
our ces
rip tion
a ff
ov a
ie f
 again st
w ik
ra el
 S chool
depend ent
8 5
 cons id
E x
ra y
ab out
f act
C l
 t em
our ce
ire d
s ide
 w ar
 im port
 King dom
 pro fess
 with in
b ol
t ra
k a
m ark
 de m
t a
col or
og n
Q BAJ
H istory
and s
f ul
ic ago
ash ington
x ford
u a
ric ket
1 10
O r
 ind ust
 spec ies
 J ohn
 It al
.. .
H ar
 p resident
! }}
il t
f ree
ic ip
y th
ampion ship
N A
 l ist
 s ett
al k
e ur
ific ation
 ex ample
{{ !}}
 ter m
re ad
i h
ric a
ic o
chn ology
S c
N orth
nd ash
r ing
ot a
 g eneral
ens e
 Re public
os ition
id es
m ission
ast er
D e
 p ass
it z
 s ong
f ield
9 2
s ur
c le
author s
ish ed
 al ign
 Le ague
. ]]
im s
T V
ber g
em ocrat
 w ord
 re t
 m ode
 publ isher
6 1
 ch ild
est er
sh ire
 p erson
9 3
 re main
  arch
raz il
angu ages
ele vision
( {{
re et
harv nb
T erry
 l ive
 sc ope
ap p
ers ey
 loc al
 L i
}} {{
m et
 l ife
fl u
ich ard
 football er
en a
 se ason
as p
ed ition
p tion
 need ed
200 3
 p ol
re land
ut ers
 s ame
 d r
eal and
ur ther
g y
le ction
" [[
n ic
A ustral
 pro cess
uk i
 Un ion
stit ute
S ee
il y
t ime
iss n
t rans
il la
eal th
; "|
 Austral ian
re ed
 D ep
8 7
e k
 res ult
up right
br idge
) }}
ig ious
M ich
l l
ol f
ir ginia
 T exas
uc cess
all as
ad ium
. ,
n ational
b urg
ir us
 un til
 to p
is on
 h ome
9 5
G erman
om et
ent al
s w
ri al
ed er
bour ne
 am ong
I N
 char acter
ese arch
 e ach
loc k
in ation
E S
our i
 O ff
p mid
h i
enn is
a id
u el
ul ts
ed eral
 h eld
 re c
od y
 al bum
are d
O n
e h
 C ouncil
 C o
 app ro
att le
ot or
am s
In ternational
 b l
 202 5
 e qu
m ic
 b ased
p ost
ar les
 dis c
w ater
 M ed
202 20
F ran
el bourne
erb ia
]] ;
cip itation
 n on
C ent
i us
 Ar t
 o pen
ly mp
 he ad
mp ire
Web archive
 M ich
 pl ace
ra ft
l ight
ut ch
lor ida
= {{
org e
am er
ail y
y a
oron to
 e ver
it ch
 develop ment
 N e
at ic
g en
 m ilitary
o on
C al
ar ian
uz uki
ward s
 l ike
and er
* {{
ar ies
" >
m usic
ac ed
D P
id dle
r im
o int
B N
vil le
ul es
st yle
 popul ar
 H ouse
uts al
 M c
fr ican
th ough
ig an
ur ban
 re qu
row span
m agazine
 Z ealand
p e
p ol
re ak
 N or
i ent
av ing
 P h
) .<
8 4
E urope
il led
id ed
th ers
c er
S e
 v al
oc r
8 2
ide o
 orig in
un icip
at ter
  http
ure d
ev el
la v
 K entucky
ur s
200 2
n er
m as
at ures
as ia
ill s
ou is
Eng lish
 D istrict
ut er
w idth
m ost
c al
 re search
n ess
u le
 C ar
 St at
 f ield
 b ack
]] }}
um ent
f iles
m en
 S ch
 to tal
 m embers
f ootball
 polit ical
 3 1
 de ath
 Col lege
 f in
 W ales
art ment
h er
ol ution
h ai
c an
00 00
/> <
reg on
is l
c ast
ish ing
ct or
at ar
c is
p is
ec k
 St ud
 R es
om as
stru ction
os oph
 D e
h d
 l in
 s et
 o b
m ov
D avid
l v
 act ress
t ype
 Al l
200 1
our s
 M e
 D ay
 d ue
A b
8 1
 le vel
 ra il
 m illion
ult ip
 g u
 th ose
w ith
202 5
202 40
m ig
 W est
 pre cipitation
pl oy
t t
ug by
ad on
if ican
w ood
                 
ib code
 sing er
 Canad ian
yd ney
 f ore
 E mpire
ict or
C O
e ast
 The y
et work
v is
ran t
A m
 M useum
 sup port
 P hil
 H er
E d
 n ow
 p ar
ghan istan
ra w
ic ations
 g iven
 st art
end er
P hil
 d ay
ener gy
 v is
 Ar ch
p pl
 f amily
l lin
access date
 200 5
 Th ese
 al ong

  
 C ensus
um mer
gu ardian
 B ar
 g row
l as
 p resent
 act iv
 T ra
 M on
v ey
am bridge
 follow ing
z h
 w omen
olic y
ra b
 B ook
w ar
 re port
 H igh
d es
 German y
 ter rit
rib ut
f ace
 B r
 co uld
 g en
 sh ow
 R esearch
ist ic
 re st
ce an
 p rom
A R
re m
am ed
 J ournal
ap e
y es
9 7
pl ace
s ch
 rep resent
 P er
way s
in o
evel op
 ex per
 bec ause
 d own
ny times
 E conom
" .
ab br
ens ive
llin ois
! !
A s
 A m
w est
E l
 off icial
 H ar
ac ific
B rit
 I reland
9 4
 import ant
ree ce
 e ffect
vol ution
anc er
g er
 in ternational
adon na
te am
 An d
ad i
9 6
 B el
8 3
 H owever
ang hai
 vol ume
r act
  100
il k
in c
 s k
( ''
p ect
 p ages
 l ink
W illiam
oy al
ol k
the guardian
 comp et
 cl ub
| ''
D on
 h ost
ron t
 Q u
 A b
 C atholic
" .<
 Ch ampionship
 sign ifican
m ith
in ing
 h um
it able
B e
 Th ere
all s
u la
 20 00
 eng ine
h io
ch an
 o pp
  et
201 10
th nic
m c
g est
b usiness
I I
M an
e u
ust ice
ish op
c us
L ondon
ocr acy
 an im
P h
 s uccess
i as
al f
 A ng
ing er
led ge
ount ain
AA QBAJ
 s he
inf o
un ch
ur k
ov iet
 in flu
d own
it a
 pro gram
 p at
  z
id ence
u ed
 do i
emocrat ic
in i
od es
 l anguages
 Pol and
iv id
  if
inn ing
d a
s cience
 b usiness
 O lymp
s r
F C
 st ru
 p ort
 Ass ociation
 us ually
S w
 man ag
ol ar
stit ut
r id
201 30
ultip le
A C
) <
f in
 R el
 m uch
v o
f ile
 lead er
 t elevision
re port
 a ge
 var ious
ev en
P ort
 ed ucation
on a
 P ort
 e ven
p arty
 S ociety
K ing
d en
 pr act
ter nal
 stud y
 off ic
b oard
 J ersey
el p
 pr im
 le d
 Fran ce
 spec ial
a ur
 iss ue
 ex pl
 b ro
p ar
av y
ian a
sy lv
st and
end ed
 s ch
R uss
R ichard
 P ar
enn sylv
201 70
 R ec
 bu ilt
 st ation
ran ch
 c r
 beg an
ater ial
he st
 lin ks
 V ietnam
ist ry
201 60
 V irginia
 st and
ar i
 re ce
  rank
]], <
ic ation
  X
 he alth
 play ed
ele ct
de st
 V al
 profess ional
 l ate
 r ight
 A ust
 B l
j e
 H istor
 st ill
r s
  ident
g ar
g s

 File
duc ation
w in
ec ut
 c aus
 c ulture
c u
evelop ment
}} .
os p
l ant
p re
  	
 wh at
1 20
 d er
 us ing
v a
it age
er ences
 l im
G u
 desc rib
ell ig
l ife
 p oss
 pro te
201 80
B ar
 f act
 200 4
ent ial
f rom
 pro duction
c ed
ri ed
 consid ered
 m ar
ber t
i res
and a
ennsylv ania
la in
E C
count ry
o z
 b irth
 In stitute
ste in
e urope
 Ch inese
H e
 p res
Europe an
ch ester
le ar
 S cience
l t
k es
g an
 sing le
N e
 m en

 In
 s ocial
 E ast
k i
L aw
) </
b ibcode
 L aw
ver age
j a
 l ess
e ak
    
 m ake
P G
 Christ ian
art er
 the ory
 B ay
% )
ig ital
 b ar
 n ames
ann ica
 T V
 H ol
9 1
 c or
 f un
 cont ain
 S up
 ad d
d am
Q u
ad a
I m
 g ames
cl ass
In f
I PA
fer ence
ther lands
 Dep artment
 c la
 com m
 all ow
vent ion
ind u
ang el
if t
N or
g ary
 A ct
 significan t
O R
 be come
 l i
 P resident
it ive
il ar
if y
c itation
 d ata
E R
st or
t w
ot es
 Air port
S ch
t v
J ames
pis ode
l ess
ec onom
 ph ys
C ar
ong ress
 l ine
iv ate
 F lorida
he ad
IS BN
w rit
 web site
S A
erv ice
ee k
re y
 A frican
 per cent
I C
201 50
 child ren
  rowspan
 v ery
L a
 develop ed
ad io
 Japan ese
c ul
eb all
ac ing
ra ine
 p ost
re me
 E arth
C anad
Ch arles
 play ers
G B
ock ey
or se
l c
le ment
 t ransport
ot land
O xford
olit an
 B as
m ap
 C or
ear s
C o
 h im
c ar
 19 90
 R o
ym p
 Russ ian
F or
 desc ription
 B y
 b ox
 com b
ig hest
 p p
oci ated
L i
 Sp anish
 bas ketball
 le ast
h old
 I owa
um ents
M c
 ad v
iss ipp
 G reek
 a ut
ym bol
A T
es ota
duc ed
 comp any
> [[
re am
cy clopedia
 U K
 dist rict
 ch ang
an ies
ab ility
os ed
 cap ital
in ary
 f ive
ore d
re a
I FA
S T
- %
 be h
ith er
 C ourt
 be com
 loc ated
W est
 h ouse
C ount
 O ther
ject s
anc es
 Min ister
10 16
t ro
 int ro
 As ia
 system s
 S ome
             
at re
 us es
est ival
 B razil
 c amp
 ad dition
  el
ug u
qu ent
 P ri
 M et
 T own
ep ar
AA J
ch ange
st r
 un ivers
is ing
B lack
u ania
ij ing
i at
 Rep ort
 N ations
ite cture
u ild
ec ret
at ri
ing u
 Cent er
ency clopedia
g ress
ith uania
  energy
Mich ael
 writ er
il i
201 40
 tem per
ol id
ure au
 Miss ouri
 o ld
 l ight
 G eneral
l im
J apan
i ol
 n amed
 G overnment
ri ev
Al l
ap t
 Comp any
 h and
 group s
A ss
 ind ivid
m ond
ition s
ade my
 g overn
ers hip
 m ass
br it
cent ury
r ative
omet imes
 d id
i i
 E m
 O regon
Ar ch
emb ly
P er
 re ach
ic le
 D evelopment
w a
z a
 with out
199 9
 in st
ys is
ele ction
 serv ices
St ate
 r un
if f
 R et
 m atch
al a
 t imes
 an other
 Ar my
u fact
rip t
b as
 c ivil
publ ican
 cap tion
il ms
]] ),
Brit ish
 sh ort
 te chn
 econom ic
d y
U K
e ed
 a ppl
 Com mun
um m
p an
 g e
issipp i
 Cent ral
gov ern
 F ootball
 ac c
 s yn
P l
rop olitan
| }
 indust ry
ood s
et ic
h ouse
ograph ic
 200 3
de m
ile d
 mode l
 h old
w ell
 ac ross
em at
]] "
et te
 t ax
 in vol
 commun ity
n z
ec ur
 cur rent
E N
 M ex
h ow
s ort
 A fter
 ad minist
inn esota
  order
ris is
 B C
U N
{ |
ellig ence
 I llinois
 im p
t own
i que
= [
              
 ch ange
o ught
 S erbia
 g old
 Af rica
  50
ev in
ux emb
ele br
 serv ice
 Mich igan
id s
 s ix
 in f
at o
 o thers
r d
 s ite
 V ol
3 00
 ret urn
Ar t
con s
enc ed
r ag
unicip al
oun g
F lag
 w on
il ver
al i
anc ial
ad o
 200 1
Cent ral
d s
ce ed
 m ap
M in
ov el
cient ific
 S he
art s
es is
 ex ist
)| ''
 part y
 reg ions
old ova
 ro le
 rec ogn
f ilm
 Is land
 M usic
 con f
ra p
our g
 O ne
ind ia
 b ody
tr act
 I m
id er
 f ew
12 4
 sim ilar
b ox
pap ers
 s w
ref er
 e vent
 W estern
in ts
p ng
 E l
ff ic
um er
ec ial
 att ack
 in c
ill ing
er land
 P al
T e
l ov
 E d
}} <
 ro ad
at ives
 B i
ub e
199 8
ive ly
ic ine
ec ially
om s
el t
ertain ment
 de l
 f ree
 v ers
st on
k n
at ory
5 00
 de ad
 po int
 Ital ian
i ć
 pro per
N ews
 L atin
Jos é
 w ay
 a verage
 H ealth
ord s
 c are
n l
ob el
sych ology
 b orn
all ery
re ater
 h ow
 p age
 n atural
ric ts
 m aking
 mon th
 school s
 c rit
riev ed
 for ms
sport s
eng th
 re d
r as
b ar
 J ustice
s ize
iter ature
 for ces
b a
P resident
l om
I T
itt le
is ions
 part s
 an al
re as
op s
AA AA
 St reet
end s
n s
depend ence
201 20
at ors
h ib
em pt
en ry
}} )
A g
an et
w ide
uthor ity
  urban
." <
]] ||
H ow
 m ember
uxemb ourg
15 0
 pro duct
 build ing
 D ictionary
 b all
 Stat istics
M on
 S ystem
esp ecially
 w ide
l ow
ot ter
 m aterial
 j azz
du ce
 F ore
um p
b on
 r ate
m ing
 in vest
 W ith
oc cer
res e
10 2
 Is rael
 K h
 mean ing
y r
P P
ob ox
 j ust
 d ates
n ect
k o
 W illiam
 B ureau
 J os
e th
 m agazine
a a
e an
Austral ian
 S ydney
 P ost
U se
 T o
 k illed
bl og
ro s
ric k
 b i
wik itable
 D o
 c y
qu es
 cre ated
' t
 ever y
ad er
 s un
ut ure
g ian
 cl imate
pp ed
 n etwork
sur ance
sk i
polit ics
ecur ity
ak er
 K ore
itz erland
 f em
 F rom
/ >{{
t em
 s epar
v ia
 P ennsylvania
 G roup
g ra
 I rish
ens ity
 le ft
 O hio
 th ird
air s
F rench
'' )
 gener ally
c f
F L
al le
pl es
as ing
 v iew
it iz
h ab
r up
 G od
 T our
h igh
is c
E m
n as
r ich
 W e
 t ype
v in
ci ences
ip s
 do es
M et
C N
oc us
D o
 c ir
 p hil
A t
               


 S
 loc ation
M iss
 S en
 H all
 E ducation
ut es
ul arly
ie val
 v authors
 p osition
 Publ ishing
 rele ased
 200 2
art in
200 80
ong o
 me thod
J PG
re le
p opulation
 h aving
ipp ines
 c ensus
vi ous
 s ometimes
mer c
S te
 sur face
ind s
et y
 president ial
 e arth
  ide
 P olit
g lobal
R A
yp t
 r ights
 ev ents
ade mic
* ''[[
 h ighest
bs erv
is k
qu are
M ed
ard en
stru ct
c raft
 N o
 includ es
m edia
cl ud
ig en
 rel igious
 c ell
av es
 P r
 Li brary
 f ac
 b est
 comp anies
 Ch icago
19 90
 de p
 t ake
c r
ak en
A lex
 high er
oc al
uck land
 M or
on line
ro y
g a
id ing
eng lish
l u
 T er
orpor ation
p resident
> (
 em ploy
 L ouis
 pol ice
re es
 e ither
oc lc
le te
end ing
 tradition al
 str ong
eral d
 e arli
  especially
ol iv
 c ase
y an
 ar r
at i
h istor
C ity
er by
g es
 T r
ew ish
E FA
 in formation
d on
I d
Sh ort
ab ly
re uters
t ar
 Ne therlands
at al
Ch ina
ov ered
2 30
 c elebr
ad ing
B en
 f re
 includ ed
 D allas
 s cience
 occ ur
 Is lands
osoph y
 al though
 spec ific
 P eople
rese arch
em ents
lin es
R ep
 b order
ot o
m ore
 Econom ic
O ther
ch e
ani el
/ ?
 cent er
st ant
P ar
P aul
 T rans
ag n
 f ar
c d
 S ur
m o
 ter ms
 s ource
P eter
 h elp
  40
 n ation
 h ous
 t urn
 mark et
 s ports
 D ec
 Off ice
est ic
rist ol
 m m
r or
i en
 s old
li brary
ott ish
 f urther
 a v
i os
il s
ud d
 U k
 rel igion
writ er
 L ab
 American s
b it
ur ies
 d am
 L a
i ro
 p op
c la
tern et
c os
p o
 est im
a ren
 Gu ardian
M al
 h alf
ce ption
a ign
 to ur
arn ival
el en
 W omen
op t
ix ed
or al
 S ocial
 G ames
 In ter
 p ur
 Brit ain
 s now
 m ultiple
c b
 Ret rieved
er o
 per form
m illion
 H is
g l
te e
 elect ed
Christ ian
 s ide
ast le
for man
Ge orge
olog ist
 me as
id ents
 G reece
imate ly
A f
eder ation
Inf obox
 f ig
 D ef
ecut ive
ric ulture
op a
 re cent
is ation
 b ank
P ubl
he alth
 man ufact
er c
 D iv
 d eb
 C ivil
 b road
Ref erences
lo ads
el es
ult i
P r
ot al
n ov
Jos eph
I tal
 produc er
C ambridge
 major ity
 stat us
st ud
 G reat
is es
 con dition
200 90
 Russ ia
B r
 S ervice
arg est
ff ick
 produc ed
 cent ral
199 7
 H uman
 19 70
in ct
 art ist
Ch ris
ar ily
iss ance
 Indian a
 re pl
 sp ace
merc ial
em or
20 100
 B ank
 tra de
 ch urch
J ournal
]] }}</
ann el
 t ext
 e ast
 de g
public ations
 se en
 19 80
unt ing
unn ing
 F irst
f utsal
w AAQBAJ
R el
g ent
 mov ement
 v ict
o ice
 in v
ictor ia
pos ed
ub s
h ol
ig a
C itation
 typ es
St at
D F
 D utch
 direct or
 t est
i ers
 r ange
qu ake
 off ice
 th ough
1 30
g ypt
ran ts
ul f
rib ution
v an
T S
ad es
 p ers
W e
á n
M ark
a o
uc lear
ann ing
i ence
 W ashington
 Fran cis
 L eg
l at
u is
 histor ical
 f lag
mon s
k h
 pl ant
S an
 m ust
 M us
 S oviet
 sh ould
v ing
E D
O ld
 C ongress
ill board
 t w
F irst
 col la
 r ules

 A
an o
h and
 stru cture
 St adium
199 2
11 8
 s ex
el sh
 p ast
 M al
div ision
w an
 S uzuki
il ities
P R
ir a
w atch
ó n
 c ricket
 occ up
 b and
web archive
 k ing
on ym
M e
 found ed
R eg
stitut ions
 Af ghanistan
 st re
ist ance
10 5
B el
ah o
vironment al
 an cient
 M ost
 B lack
11 2
 con c
 to ok
 p ress
 s ymbol
 im pro
 f ood
c ro
 c ame
wh o
umb ers
 em erg
 through out
V ietnam
 de pend
 j o
R ed
 G old
A F
199 6
 g round
se e
 form ed
* *[[
 T oronto
illa ge
 rel ated
 f inal
 Rev iew
 m edia
 cent re
t able
reed om
j stor
 w est
 g lobal
fa ult
 col span
 ass ociated
L ang
ate st
 D es
 h owever
op en
2019 0
 c ourt
 c ult
 in it
 R ed
= |
ow ers
a ud
am m
d i
ug os
p ly
angel ia
 d om
s l
In ter
 typ ically
in cip
 G DP
v ince
 c ultural
 econom y
d r
 c ost
umm ary
ent ion
act ion
A N
 rail way
cl imate
W estern
ot ion
 D em
in ent
 se e
T O
ag hd
h ome
 g reat
 grow th
K evin
 s ug
ef n
la bel
l ike
m os
e ace
''' [[
B rian
ur der
ab s
 In c
lam ic
dis play
de fault
H ol
 incre ased
]] '''
 f und
 c ertain
  

rum p
ag ed
 w idth
 g ra
 re al
 pr ivate
 f all
ok e
 l iving
im al
ay a
om a
ark iv
govern ment
N o
s ites
B l
ig in
az e
 a ff
 l ength
 d yn
 w ind
 for ce
199 5
 R ail
 M any
ounc ed
B S
as ion
 Ass embly
 to urn
 C ons
la h
s m
C or
M angelia
uild ing
igen ous
ic as
en th
s en
 S an
 Book s
 ro und
 Or gan
b ank
cn n
 publ ished
im ent
 me ans
umb ia
E ast
J ul
ut t
 count y
ent ertainment
ile y
 t reat
 la unch
as k
h ood
 north ern
 R ef
um n
 f ull
  ice
 prov ide
 ele ctions
t our
ig er
a ustral
12 2
 p ri
G reen
de c
 leg al
uk e
o a
 In t
ill er
g roup
 C ap
I O
 incre ase
N umber
 p mid
 v irus
 col on
 m useum
 s aid
 Ac ademy
 lead ing
n umber
o j
H istor
 Cl ub
 v ideo
 Ital y
F F
 resp ons
 av ail
al bum
 te chnology
 l oss
b ack
D emocratic
s et
 M elbourne
ens ion
 pro ble
loc al
 pro test
 En cyclopedia
ans as
mit tee
pr ing
ra q
 un iversity
a fter
b and
 def in
 st ar
por ary
h uman
 ab ove
 pre vious
 Val ley
 cla im
 F C
10 3
 l ower
erg y
ro g
 w rest
 D uring
 P aul
 Publ ic
n v
oo per
i ate
A L
 m id
J an
w p
ol a
sh ort
 refer red
it ing
c up
 me chan
R oyal
as ons
Don ald
 rel ation
C ro
 s ize
 leg isl
im age
 Olymp ics
D ec
ip lom
stru cture
"/> <
 f ilms
 con struction
 town s
ig inal
 Stud ies
-- --
Ind ian
 south ern
14 0
b ury
 s port
100 7
 s n
ugos lav
och i
arn ing
B as
lant ic
ron ic
ad y
 l o
200 70
th an
 S ing
ur t
]] ).
le ctions
 out side
at form
10 9
h att
 v ot
ay lor
 I d
 P arliament
 record ed
s eries
ug e
p eople
 H ill
oun ts
198 9
 199 5


 M
 c and
 L and
 L ake
 n ext
stitution al
 b ackground
 c over
; –
10 4
 b lack
 Gu ide
 G en
 Miss issippi
 c ancer
av al
 is land
 comp let
 ac cording
stat es
not es
 d omin
ect or
t oday
d ictionary
 F in
am in
 Y ear
 describ ed
ord ers
 B est
iv ity
erb ian
av ior
pos ition
os er
com mun
re cord
st one
 c our
 r iver
mig ration
 T ime
 Rev olution
 Nor way
av irus
ell ing
de f
Ch inese
 wh ite
G reat
per ial
A S
on or
 comp lex
 j ud
l dest
lo ad
 rel ative
c el
 Pri ze
sc ore
ys ics
j p
 t ro
 P acific
]]) <
 partic ularly
 J ames
 G reen
ar us
ak istan
 Aust ria
 Ac cording
 dis e
 de st
 P re
Austral ia
tra vel
ov ery
Wh at
f n
ch ina
 un ion
 w in
10 8
V ID
S am
 in dependent
 n ovel
ena issance
 w atch
 Pol ish
stit u
 M ark
ir it
 Sw ed
 in surance
em ical
qu art
oe ing
  arg
 ev idence
am ous
ri ef
so uth
Th ere
b ro
 team s
eng er
 kn ow
ul ation
 app ear
 re v
 L ife
] ,
i op
et ing
  978
ab les
 199 1
 O xford
m us
 de cl
 Sh anghai
l ong
]]. {{
 b ound
 D ata
op p
el ine
 D avid
itiz ens
we alth
b ot
 T em
r ban
leg es
M S
 r ule
Russ ian
 la bel
 bel ie
id ity
ffick ing
 p red
 Sc otland
im a
ic ro
 stud ents
th let
itt ed
 L ithuania
aze era
 hum ans
 A rab
 common ly
ist ration
if a
 d i
E ur
4 00
qu est
 resp ect
 intro duced
oc ument
trans l
c ulture
 fun ction
k er
 univers ities
 co ast
 Com mission
Th omas
es h
N C
s html
 h ockey
 Christ mas
in et
S al
 sur v
S up
 ro ck
A ir
 em p
 serv ed
 F ilm
g h
 O ver
 dist ricts
 M iddle
10 7
 pr incip
 fe ature
forman ce
ie ch
 h ar
r ated
r oll
 se ction
 A pp
C er
 in s
 orig inal
Wh ite
 c ases
quent ly
}} "
199 1
 f ocus
g ame
nb a
iv als
 s ound
a rent
Ref list
 partic ular
 pro ject
k ey
K h
v ation
aghd adi
 m ach
ze ch
erv e
overn or
 M ary
ian ce
ert y
 arch itecture
 anim als
 Wh ite
 s even
an ks
ugu ese
 M innesota
ite ct
ik o
e ff
Ab out
arch ives
Pol and
ov ers
 w he
ist ical
ed s
 inter est
H uman
199 4
 c risis
ann ot
A c
 P opulation
rop ical
4 15
 19 60
 North ern
stand ing
I M
 M ars
us ion
p mc
m ay
ed y
A v
 temper ature
 o p
 larg er
F rank
b ased
 s ent
ad or
                
O ff
 ra p
g i
 s it
 partic ip
b o
oron avirus
 U p
mar ine
 e thnic
erv ation
 o bserv
ch ie
12 3
P al
s ing
er d
 Ang eles
1 19
 Ro ad
Com p
 S al
 in j
 M ac
I rish
 199 9
 f ire
 sug gest
in ternational
rish na
at ur
 ra ther
vers e
T er
 Se a
b in
h u
 rel ations
s ong
 G rand
 de ter
fl ict
ron om
u als
M elbourne
 s uff
 R D
k g
em ic
em a
ecret ary
c s
e ep
g et
 n ight
ub le
 W ater
 val ue
. ''
ind ust
 K n
 B usiness
 p olicy
f acts
ph ere
 p ark
brit annica
og en
| <
 B en
le m
G overnment
b es
H igh
 J un
 n ative
 Th omas
 un it
 b illion
 M odern
it ude
ol es
 f a
G reek
 S am
 199 6
11 5
 I ts
P eople
ce st
 dis play
 v iol
 An n
 D on
 n orm
 b r
az a
kn own
 o ldest
| (
wh ite
y ork
 build ings
 c ross
 individ ual
 music ian
nv sr
rip ura
 main tain
 199 8
af ety
re view
 col lect
m iss
198 8
reg ion
 y ou
ue en
 g rad
 199 7
 d en
U L
s ky
ath emat
ib ility
 G lobal
 reg ard
ob s
p ower
 g l
 S ub
 199 2
 de v
18 0
 s l
 of fer
 def e
T r
 caus ed
 p ot
 F IFA
ific ial
11 6
p ts
) :
B y
play er
ith uan
amp ions
 avail able
 territ ory
U R
 Sp ain
sh ow
 is bn
 territ ories
C C
 st ory
Pol ish
 v eh
d q
Cal ifornia
ick s
 S ince
an th
G lobal
 becom es
S S
up loads
otter dam
oliv ia
 S ciences
 Cl ass
amil ies
ten stein
K entucky
 m ale
ber al
ur rent
  enc
T exas
 m yth
m at
 S mith
h r
 poss ible
 Wh en
ack s
 rele ase
Ind ia
u v
 co ach
 prim ary
 n ature
 P ers
 report ed
Rep ort
a res
 D el
 D ublin
 exp ress
 con cept
 follow ed
 As ian
 O ld
omb ia
 fore ign
iz ing
H er
iech tenstein
iz ations
wh at
A uthority
g allery
ste ad
m al
 al most
iet ies
 prote ct
 Roman ia
st ar
 appro x
man n
s q
 its elf
 f ight
la d
 199 4
 Div ision
ra structure
k ins
 Histor ical
 l ove
et ro
 writ ten
 ex am
 incre asing
 T rump
c ia
J ac
n orth
b order
com m
J on
 M edia
  era
go al
 cons ist
stat istics
 t rib
 W ork
un ter
h ou
 sett lement
10 6
ang er
A ng
E v
 F l
arliament ary
or i
  er
we gian
 st ri
M em
 po et
]]'' .
 chang es
ap s
or ing
 in stitutions
 con duct
 C orporation
iv ic
 m iss
N ov
de l
 N ot
 sur round
b ig
M ac
ic ated
th ur
le an
 C O
Ex ternal
 Sw itzerland
res p
 l ik
20 5
 A rea
p ret
 N az
 con nect
 b ranch
 w estern
 def ined
 sub ject
yl on
ric e


 D
198 6
 Cent re
se x
 m ountain
u j
c z
I A
 g ain
mon wealth
R ob
 Ch ile
 ent ire
le vel
ast y
 res ults
 b us
l argest
 198 9
 pl ants
f all
g on
te ct
k ing
oy s
D A
E T
ag ement
an al
 k illing
t ies
b re
 f arm
 le ague
ain ts
ur d
av in
P olit
 s on
 M ore
 D emocratic
reat y
 att empt
L atin
 estim ated
y e
 Q atar
 ac count
M at
 H ow
 to day
ri z
P at
 appro ach
 success ful
. }}</
 pl aces
] </
 cent uries
Ch icago
on ent
 S ummer
ig ation
ion e
  60
 Un der
E conom
m atch
199 3
ian t
A ust
ul s
 E v
i date
 m otor
W ar
 go als
 fore st
 a way
 al t
 P an
 P lay
ric ultural
 ph ot
 Mex ico
 air craft
R O
 sc ore
re al
Canad a
 P at
 stand ard
oun ter
T ra
 b ig
or ough
12 5
 most ly
20 8
G eneral
T op
cf m
 S ports
ce ania
 conc ern
 ne igh
 m us
 tra vel
 A ge
b reak
c ular
or ation
ones ia
P rime
 Cal gary
 A ff
 In formation
ec ies
 I ran
ly ing
osp ital
 B al
N obel
el ves
ed ucation
thod ox
p op
ell ow
 fem ale
]] {{
ins k
 Uk raine
mid dle
 r ace
ad d
 f ind
k in
ust ain
we ather
te x
w estern
year s
out ledge
ithuan ian
 A ward
re ement
f al
2 50
cap tion
 m ig
 S im
st an
erv ices
p ers
or ph
 min or
W ik
 S un
m useum
r p
 a chie
 work s
u i
 d a
 p ay
 open ed
G en
 bel ow
 reg ional
w er
 influ ence
& #
ant a
D em
cre ase
 Her itage
il ly
b lock
 n umer
 ra in
end um
  und
im um
Re publican
 dec la
 19 50
 t ennis
D B
 com mercial
lo om
act ers
W ashington
sc ript
s chool
h o
f oot
R ev
 199 3
 E gypt
11 11
 D r
D es
inn er
w ich
 a ffect
 S ee
ic les
 M en
  ill
ov erty
 C ulture
 in hab
 div ided
T im
st m
R ec
pro duct
 p aint
ic i
ear th
atri ots
6 00
F ort
 re m
. }}
 go al
ag on
 la ke
ia b
 s ociety
sc ription
 var iety
anc y
 R oyal
r n
per or
f i
 P art
 pract ice
 Ar ts
or a
20 4
 mov ed
I t
 t aken
R E
ol is
ch en
 c ategory
urk ey
 t akes
P T
 separ ate
C atholic
un a
form at
 s er
os c
 L ine
 n ar
 comp uter
 is lands
ell s
 Ind ust
n ing
k en
 O cean
ik a
ov ere
E astern
 II I
e z
M ah
Sp anish
ri age
k w
 R obert
und red
 v illage
 m od
 wh ose
10 00
 la kes
E pisode
 b o
 fe atures
 C ro
c ities
 condition s
 vers ion
b us
id ae
w anda
2 14
m ulti
Canad ian
 B er
 de part
 J ul
ol ymp
v authors
c are
19 0
 198 8
it ter
 beg inning
f ound
em i
overe ign
 Kore a
 t en
ur b
c ms
 M otor
p ut
S ocial
urn ame
M usic
aw a
el la
 to ge
ink ing
 ele ments
Is rael
 res idents
S cience
 Te chnology
AA A
 toge ther
D aniel
 trans l
 un its
I owa
 dif f
 s m
R es
 cy cl
u ous
 s elf
 For ce
lang x
 M oldova
m ode
eb an
 Bay ern
20 200
 M ass
g iven
 s ilver
 start ed
u er
it ors
P N
av i
S ub
Ge org
doc uments
ver y
 Pol ice
 Reg ion
F I
 n or
An n
 L uxembourg
* ''
 N ov
  editor
 cap t
we ek
re p
ribut ed
on ia
12 8
 M ad
el ess
pan ic
 s ummer
ed ral
 engine ering
16 0
 R aj
 k ey
 F ound
 v ia
 requ ired
il a
 n umbers
 H indu
 s us
ran ce
 E ur
 m unicipal
op y
anc ed
v ar
