{"[PAD]": 0, "[BOS]": 1, "[EOS]": 2, "[UNK]": 3, " ": 4, "|": 5, "=": 6, "-": 7, ".": 8, "/": 9, "\n": 10, "[[": 11, ",": 12, " the": 13, " of": 14, "]]": 15, "ref": 16, " and": 17, "://": 18, " in": 19, "url": 20, "date": 21, "archive": 22, "(": 23, "https": 24, " to": 25, " a": 26, "]],": 27, ">": 28, "web": 29, ":": 30, "www": 31, "*": 32, "title": 33, "}}</": 34, "{{": 35, "_": 36, "}}": 37, "1": 38, "com": 39, "org": 40, ">{{": 41, "2": 42, "–": 43, " is": 44, "cite": 45, "access": 46, "\"": 47, "last": 48, "first": 49, ".<": 50, "http": 51, "=\"": 52, " name": 53, " as": 54, "%": 55, " web": 56, "''": 57, " for": 58, " by": 59, "'s": 60, " The": 61, "status": 62, "&": 63, " with": 64, " on": 65, " was": 66, "3": 67, "publisher": 68, " from": 69, ")|": 70, " are": 71, ")": 72, "==": 73, " that": 74, "===": 75, "Cite": 76, "The": 77, "live": 78, "s": 79, "),": 80, " or": 81, "0": 82, "website": 83, "4": 84, "]].": 85, ";": 86, " at": 87, "?": 88, "html": 89, "5": 90, "10": 91, "||": 92, "8": 93, "|-": 94, " an": 95, "<": 96, "en": 97, "books": 98, "news": 99, " which": 100, "6": 101, " book": 102, "\">{{": 103, "7": 104, "=[[": 105, "20": 106, "year": 107, "9": 108, " American": 109, " be": 110, "*[[": 111, "''[[": 112, "'": 113, "gov": 114, " first": 115, " also": 116, " has": 117, "><": 118, "language": 119, " it": 120, " were": 121, "File": 122, "jpg": 123, "the": 124, " 1": 125, "|[[": 126, " have": 127, " news": 128, "id": 129, " 2023": 130, "]].<": 131, "thumb": 132, " 2020": 133, " In": 134, "A": 135, "th": 136, " 2022": 137, "isbn": 138, " 2021": 139, " A": 140, "uk": 141, "**": 142, "Category": 143, " States": 144, "born": 145, " its": 146, "author": 147, " 2019": 148, "'''": 149, "pdf": 150, " their": 151, "work": 152, "pages": 153, "]]''": 154, "/>": 155, " 2024": 156, "12": 157, " journal": 158, "!": 159, "C": 160, "11": 161, " not": 162, "978": 163, "in": 164, "a": 165, " United": 166, " 2": 167, "dead": 168, " October": 169, "D": 170, " 2018": 171, "page": 172, " one": 173, " May": 174, "+": 175, "google": 176, "doi": 177, " January": 178, " July": 179, " New": 180, " March": 181, " his": 182, " April": 183, " other": 184, " such": 185, ").": 186, " people": 187, " but": 188, "</": 189, "of": 190, " University": 191, "S": 192, " style": 193, " August": 194, " December": 195, " 2017": 196, " June": 197, " 3": 198, " this": 199, "journal": 200, "small": 201, " state": 202, " title": 203, " C": 204, " 2013": 205, " been": 206, " more": 207, ".|": 208, "volume": 209, "co": 210, "/|": 211, " most": 212, " can": 213, " city": 214, "19": 215, " September": 216, " language": 217, " Press": 218, " 2014": 219, "nbsp": 220, "]])": 221, "and": 222, " November": 223, " 2016": 224, " into": 225, "#": 226, "2024": 227, " used": 228, "\n\nThe": 229, " February": 230, " had": 231, " World": 232, " 2010": 233, "p": 234, "22": 235, "b": 236, " 2015": 237, " 10": 238, " 2012": 239, "01": 240, "world": 241, " 4": 242, " than": 243, " who": 244, "2019": 245, " 2011": 246, "000": 247, "location": 248, " de": 249, "15": 250, "2022": 251, "br": 252, "24": 253, "article": 254, "13": 255, "16": 256, " all": 257, " population": 258, " two": 259, "htm": 260, " It": 261, "'',": 262, "14": 263, "issue": 264, " they": 265, " after": 266, "]": 267, " between": 268, "to": 269, "]]|": 270, "editor": 271, "2020": 272, "January": 273, "align": 274, " 5": 275, "25": 276, " York": 277, " over": 278, "[": 279, "17": 280, " world": 281, "United": 282, "edu": 283, "18": 284, "May": 285, " area": 286, "sfn": 287, "October": 288, " English": 289, "21": 290, "e": 291, " time": 292, "2023": 293, "December": 294, "pg": 295, "March": 296, "June": 297, " century": 298, " may": 299, "List": 300, "2018": 301, "30": 302, "d": 303, " https": 304, "2021": 305, "====": 306, ".{{": 307, "23": 308, " many": 309, " 6": 310, " year": 311, " high": 312, " 20": 313, "July": 314, "27": 315, " during": 316, " player": 317, " 7": 318, "04": 319, "03": 320, " some": 321, "April": 322, "lang": 323, "November": 324, " url": 325, "\"/>": 326, " last": 327, " years": 328, " known": 329, " 2009": 330, " date": 331, "August": 332, "28": 333, "02": 334, "February": 335, "08": 336, " he": 337, " 2008": 338, "September": 339, "center": 340, "26": 341, "([[": 342, "06": 343, " This": 344, " only": 345, " War": 346, " City": 347, ".</": 348, " History": 349, "05": 350, "c": 351, "New": 352, "07": 353, "B": 354, "bbc": 355, " football": 356, " new": 357, "PA": 358, "09": 359, "px": 360, " News": 361, "—": 362, "right": 363, " film": 364, " State": 365, " 11": 366, " 8": 367, "au": 368, "Anthony": 369, " country": 370, "|{{": 371, " about": 372, "29": 373, " when": 374, "2010": 375, ")]]": 376, " 2007": 377, "text": 378, " 12": 379, " use": 380, " including": 381, " 9": 382, "f": 383, " through": 384, "de": 385, " 15": 386, "\n\nIn": 387, " government": 388, " British": 389, " 19": 390, " County": 391, "on": 392, "link": 393, " U": 394, " 18": 395, "2017": 396, "=\":": 397, " image": 398, " system": 399, "E": 400, "convert": 401, "index": 402, " number": 403, "2014": 404, " South": 405, "Main": 406, " 16": 407, " 17": 408, "2011": 409, " part": 410, " 13": 411, " 14": 412, " 0": 413, " being": 414, "National": 415, " include": 416, ")]],": 417, "US": 418, "2016": 419, "2012": 420, " while": 421, " there": 422, ",<": 423, " record": 424, "]]:": 425, " where": 426, "name": 427, "American": 428, " history": 429, "php": 430, "\",": 431, " often": 432, " J": 433, " three": 434, " I": 435, " 21": 436, " well": 437, "us": 438, " these": 439, "2008": 440, "}},": 441, "2015": 442, " low": 443, "disambiguation": 444, " under": 445, "]]<": 446, " called": 447, " up": 448, "2013": 449, " Europe": 450, " largest": 451, " National": 452, "John": 453, "]]'',": 454, " water": 455, "left": 456, " archive": 457, "2007": 458, " Australia": 459, "2009": 460, " both": 461, " 25": 462, " 30": 463, "]]]]": 464, " F": 465, " became": 466, " no": 467, "pp": 468, " p": 469, " since": 470, " Cup": 471, " team": 472, " 24": 473, " Party": 474, " made": 475, " out": 476, " election": 477, "state": 478, "background": 479, " her": 480, " Times": 481, " early": 482, " European": 483, "31": 484, "       ": 485, "F": 486, " India": 487, " music": 488, "ca": 489, " color": 490, "\nThe": 491, " International": 492, " would": 493, "      ": 494, " 2006": 495, " 23": 496, "        ": 497, "Robert": 498, "history": 499, " form": 500, " 26": 501, " several": 502, " 28": 503, " countries": 504, "BBC": 505, " French": 506, " series": 507, " them": 508, "     ": 509, "         ": 510, " national": 511, " 27": 512, "newspaper": 513, "University": 514, " access": 515, " England": 516, " politician": 517, "chapter": 518, " will": 519, " China": 520, " large": 521, "100": 522, "00": 523, "    ": 524, " M": 525, ">[": 526, " game": 527, " German": 528, " 22": 529, "World": 530, " around": 531, " major": 532, "for": 533, "data": 534, " second": 535, "km": 536, " actor": 537, "]]'": 538, " areas": 539, "m": 540, " Canada": 541, " London": 542, "flagicon": 543, " America": 544, " 29": 545, "2006": 546, " found": 547, " former": 548, "R": 549, "no": 550, "cid": 551, " North": 552, " cities": 553, " before": 554, "svg": 555, " region": 556, "story": 557, "net": 558, " work": 559, " later": 560, " California": 561, ":#": 562, " then": 563, " established": 564, " II": 565, " He": 566, "articles": 567, "details": 568, "2005": 569, " River": 570, "aspx": 571, " days": 572, "2004": 573, " against": 574, " within": 575, " any": 576, " states": 577, " species": 578, "M": 579, " R": 580, " different": 581, " Church": 582, " Kingdom": 583, " public": 584, " example": 585, "''.": 586, "n": 587, "ndash": 588, "\"|": 589, "x": 590, "-->": 591, " end": 592, " term": 593, " power": 594, " control": 595, " Republic": 596, "<!--": 597, " League": 598, " modern": 599, " per": 600, " publisher": 601, "harvnb": 602, " scope": 603, "Terry": 604, "free": 605, " life": 606, " footballer": 607, " needed": 608, " Park": 609, " same": 610, "$": 611, " general": 612, "{{!}}": 613, "({{": 614, " D": 615, " align": 616, "History": 617, " Australian": 618, " S": 619, "issn": 620, " Union": 621, " human": 622, "upright": 623, " Texas": 624, " until": 625, "content": 626, " School": 627, ".,": 628, " B": 629, " so": 630, ".]]": 631, "See": 632, " each": 633, "pmid": 634, " held": 635, "U": 636, " local": 637, "about": 638, " 2025": 639, " based": 640, "           ": 641, "}}{{": 642, "\"[[": 643, " Council": 644, "sup": 645, "st": 646, "Webarchive": 647, " place": 648, "International": 649, " home": 650, " among": 651, " military": 652, "2000": 653, " live": 654, " like": 655, "  ": 656, " common": 657, " four": 658, "*{{": 659, " law": 660, "J": 661, " period": 662, " season": 663, "census": 664, " group": 665, " development": 666, "={{": 667, " http": 668, " Kentucky": 669, "new": 670, " District": 671, " US": 672, "2003": 673, " political": 674, " House": 675, "]];": 676, " 31": 677, " College": 678, " Wales": 679, " Zealand": 680, "English": 681, "/><": 682, " small": 683, "as": 684, " Indian": 685, " L": 686, " do": 687, " due": 688, " those": 689, "math": 690, " album": 691, " precipitation": 692, " singer": 693, " town": 694, " Empire": 695, " million": 696, " Canadian": 697, " They": 698, " school": 699, " For": 700, ";\"": 701, " given": 702, "type": 703, "2001": 704, "accessdate": 705, " family": 706, " 2005": 707, " These": 708, " set": 709, " land": 710, ";\"|": 711, " actress": 712, " following": 713, " women": 714, " Census": 715, "edition": 716, "style": 717, " Japan": 718, " Germany": 719, "David": 720, " E": 721, "2025": 722, " total": 723, " now": 724, "q": 725, "2002": 726, "magazine": 727, " because": 728, " could": 729, "nytimes": 730, "city": 731, "abbr": 732, " class": 733, "i": 734, " war": 735, "..": 736, " Ireland": 737, "South": 738, " Day": 739, " However": 740, " volume": 741, " pages": 742, "row": 743, "theguardian": 744, " Research": 745, " important": 746, " al": 747, ")}}": 748, "quote": 749, " 2000": 750, " international": 751, " long": 752, "v": 753, " Museum": 754, " non": 755, " day": 756, " Journal": 757, "em": 758, "\n ": 759, "is": 760, " members": 761, " 100": 762, " As": 763, " doi": 764, " list": 765, " languages": 766, " Poland": 767, " if": 768, "color": 769, " Association": 770, " usually": 771, " much": 772, " leader": 773, " television": 774, "asp": 775, " main": 776, " Society": 777, " France": 778, " education": 779, " near": 780, " issue": 781, " age": 782, " led": 783, "|''": 784, " Jersey": 785, " An": 786, " built": 787, "\">": 788, " began": 789, "London": 790, " links": 791, " On": 792, " Virginia": 793, "party": 794, " Catholic": 795, " played": 796, "]],<": 797, " still": 798, "...": 799, " professional": 800, " popular": 801, " art": 802, " various": 803, "j": 804, " using": 805, "!!": 806, "I": 807, " H": 808, " W": 809, " author": 810, "science": 811, " 2004": 812, " word": 813, " what": 814, " West": 815, " production": 816, "\nFile": 817, " considered": 818, " along": 819, "(''": 820, " Institute": 821, " There": 822, " Chinese": 823, " right": 824, "time": 825, " Science": 826, " research": 827, " station": 828, " single": 829, "with": 830, "Richard": 831, " John": 832, "bibcode": 833, "g": 834, "European": 835, "St": 836, " theory": 837, "N": 838, "]]}}": 839, " games": 840, "at": 841, "width": 842, " culture": 843, " Department": 844, "y": 845, " become": 846, "\".<": 847, " study": 848, " data": 849, " Airport": 850, "50": 851, "main": 852, "yes": 853, " Florida": 854, " website": 855, "ISBN": 856, "James": 857, " top": 858, " children": 859, " rowspan": 860, " East": 861, " very": 862, "}}.": 863, " names": 864, " even": 865, " developed": 866, " Japanese": 867, " TV": 868, "eu": 869, " players": 870, ").<": 871, " make": 872, " back": 873, " song": 874, "G": 875, "citation": 876, "Charles": 877, "T": 878, " G": 879, " 1990": 880, " Russian": 881, " him": 882, " men": 883, "\nIn": 884, " own": 885, "Oxford": 886, " Spanish": 887, " least": 888, " Iowa": 889, " basketball": 890, "%)": 891, ")</": 892, "P": 893, " P": 894, " company": 895, " pp": 896, "Roman": 897, " Greek": 898, "by": 899, "files": 900, " district": 901, " African": 902, " Roman": 903, " late": 904, " located": 905, " five": 906, " systems": 907, " uses": 908, " UK": 909, " Asia": 910, " north": 911, "-%": 912, " death": 913, "L": 914, " Minister": 915, " play": 916, " Other": 917, " social": 918, " Nations": 919, "team": 920, " Center": 921, " energy": 922, "William": 923, " writer": 924, " Court": 925, "Michael": 926, " Missouri": 927, ")<": 928, " named": 929, " General": 930, "cn": 931, "          ": 932, " description": 933, " Company": 934, " groups": 935, "H": 936, " Some": 937, " official": 938, " without": 939, "\".": 940, " President": 941, " services": 942, "music": 943, "century": 944, " another": 945, " Army": 946, " line": 947, " economic": 948, "X": 949, "North": 950, "   ": 951, "W": 952, "top": 953, " times": 954, " industry": 955, " field": 956, " Development": 957, " Central": 958, " caption": 959, " 2003": 960, " Football": 961, " King": 962, " across": 963, " Oregon": 964, " south": 965, " community": 966, "British": 967, "business": 968, "report": 969, "es": 970, " less": 971, "1999": 972, " Government": 973, "|}": 974, "la": 975, "ac": 976, "{|": 977, " Serbia": 978, "national": 979, " capital": 980, " Africa": 981, "K": 982, " Michigan": 983, " Illinois": 984, "=[": 985, " others": 986, " site": 987, "pl": 988, " service": 989, "]]),": 990, " link": 991, " won": 992, " she": 993, " 2001": 994, "football": 995, "it": 996, " change": 997, "t": 998, " regions": 999, " role": 1000, ")|''": 1001, " St": 1002, " party": 1003, " Earth": 1004, "europe": 1005, "day": 1006, ">[[": 1007, " health": 1008, " After": 1009, " Vietnam": 1010, "png": 1011, "place": 1012, " order": 1013, "or": 1014, " model": 1015, " Western": 1016, "40": 1017, " level": 1018, " One": 1019, " did": 1020, "            ": 1021, " average": 1022, "             ": 1023, "nd": 1024, " making": 1025, " schools": 1026, " way": 1027, " forms": 1028, " Italian": 1029, "fr": 1030, "r": 1031, " Justice": 1032, " how": 1033, " forces": 1034, " mean": 1035, " parts": 1036, "José": 1037, "Central": 1038, "from": 1039, " born": 1040, " body": 1041, " building": 1042, " member": 1043, " Dictionary": 1044, " Statistics": 1045, "1998": 1046, " character": 1047, " road": 1048, " rate": 1049, " result": 1050, " Championship": 1051, "mi": 1052, " Art": 1053, " dates": 1054, " jazz": 1055, " Bureau": 1056, " magazine": 1057, " Sydney": 1058, " Street": 1059, "German": 1060, "90": 1061, " killed": 1062, "Australian": 1063, ".\"<": 1064, "wikitable": 1065, " created": 1066, "'t": 1067, " climate": 1068, "35": 1069, "80": 1070, " Pennsylvania": 1071, "Use": 1072, " process": 1073, " page": 1074, " generally": 1075, " Irish": 1076, " type": 1077, " Music": 1078, "lt": 1079, " present": 1080, "col": 1081, " similar": 1082, " location": 1083, " third": 1084, " point": 1085, " Education": 1086, " vauthors": 1087, " Publishing": 1088, " released": 1089, " 2002": 1090, "JPG": 1091, " having": 1092, " 50": 1093, " meaning": 1094, " From": 1095, " sometimes": 1096, " surface": 1097, " Health": 1098, "election": 1099, " presidential": 1100, " significant": 1101, " support": 1102, " president": 1103, " Ohio": 1104, " rights": 1105, " events": 1106, " natural": 1107, "In": 1108, " highest": 1109, "view": 1110, " air": 1111, " includes": 1112, "President": 1113, " By": 1114, " Library": 1115, "French": 1116, " companies": 1117, " light": 1118, " census": 1119, " Chicago": 1120, "\\": 1121, " higher": 1122, "politics": 1123, " Christian": 1124, " left": 1125, "ft": 1126, "*''[[": 1127, " police": 1128, " either": 1129, "oclc": 1130, " especially": 1131, "Law": 1132, " case": 1133, " information": 1134, " Report": 1135, " free": 1136, " Netherlands": 1137, " religious": 1138, "reuters": 1139, " down": 1140, "1990": 1141, " included": 1142, " science": 1143, " T": 1144, " Islands": 1145, "info": 1146, " although": 1147, "all": 1148, "State": 1149, " People": 1150, " does": 1151, " few": 1152, " traditional": 1153, "}}<": 1154, " Economic": 1155, " K": 1156, " Dallas": 1157, " off": 1158, " terms": 1159, " source": 1160, "O": 1161, " map": 1162, " Office": 1163, " Hall": 1164, " Island": 1165, "up": 1166, " box": 1167, " mm": 1168, " Americans": 1169, " gold": 1170, " religion": 1171, "'')": 1172, " Group": 1173, "Peter": 1174, "asia": 1175, " center": 1176, "alt": 1177, " Guardian": 1178, "zh": 1179, " Women": 1180, "country": 1181, "size": 1182, "TV": 1183, " Games": 1184, " Britain": 1185, "China": 1186, " Retrieved": 1187, " best": 1188, " multiple": 1189, "english": 1190, " elected": 1191, " Air": 1192, " urban": 1193, " Greece": 1194, "]]\"": 1195, "Infobox": 1196, " club": 1197, "film": 1198, " further": 1199, "References": 1200, " la": 1201, "              ": 1202, "/?": 1203, " producer": 1204, "ro": 1205, " majority": 1206, "UK": 1207, " High": 1208, " Russia": 1209, " produced": 1210, "Cambridge": 1211, " Service": 1212, " 1970": 1213, " person": 1214, "million": 1215, "}})": 1216, " Indiana": 1217, "George": 1218, " take": 1219, "1016": 1220, " just": 1221, " O": 1222, " status": 1223, "West": 1224, " half": 1225, "]]}}</": 1226, " seen": 1227, " Great": 1228, " 1980": 1229, " movement": 1230, "Citation": 1231, " border": 1232, "Black": 1233, " artist": 1234, " dead": 1235, " range": 1236, " types": 1237, "nl": 1238, " though": 1239, "rs": 1240, "Chris": 1241, " historical": 1242, " Washington": 1243, " First": 1244, ">(": 1245, " Dutch": 1246, "/>{{": 1247, " director": 1248, " space": 1249, " Law": 1250, " trade": 1251, " Suzuki": 1252, "webarchive": 1253, "nz": 1254, " founded": 1255, " rules": 1256, "1997": 1257, " Afghanistan": 1258, " ancient": 1259, " red": 1260, "population": 1261, " took": 1262, " throughout": 1263, " At": 1264, " east": 1265, " sports": 1266, " Stadium": 1267, " must": 1268, " formed": 1269, " Toronto": 1270, "Journal": 1271, "**[[": 1272, " V": 1273, " colspan": 1274, " associated": 1275, "33": 1276, "jstor": 1277, " however": 1278, " related": 1279, " pop": 1280, " came": 1281, "Joseph": 1282, " Soviet": 1283, " centre": 1284, "who": 1285, "=|": 1286, " typically": 1287, " every": 1288, "1992": 1289, " cultural": 1290, " economy": 1291, "publications": 1292, " railway": 1293, " side": 1294, " Most": 1295, " GDP": 1296, " Review": 1297, " media": 1298, "32": 1299, " food": 1300, "City": 1301, "85": 1302, "34": 1303, " N": 1304, " growth": 1305, "81": 1306, " office": 1307, " increased": 1308, " six": 1309, "media": 1310, "Kevin": 1311, " living": 1312, "45": 1313, " percent": 1314, " show": 1315, " birth": 1316, " ball": 1317, "1996": 1318, "list": 1319, "Mangelia": 1320, " All": 1321, " Assembly": 1322, " transport": 1323, "Western": 1324, " central": 1325, " structure": 1326, "efn": 1327, " Many": 1328, " Books": 1329, " published": 1330, " means": 1331, "Brian": 1332, " force": 1333, " west": 1334, " business": 1335, " provide": 1336, " Act": 1337, " elections": 1338, "86": 1339, "entertainment": 1340, " increase": 1341, " pmid": 1342, " county": 1343, " said": 1344, "div": 1345, " Academy": 1346, " report": 1347, " leading": 1348, "sport": 1349, " house": 1350, " Club": 1351, " video": 1352, " Italy": 1353, "water": 1354, " final": 1355, " technology": 1356, " BC": 1357, " old": 1358, " Melbourne": 1359, "via": 1360, " match": 1361, " Encyclopedia": 1362, " global": 1363, " With": 1364, " No": 1365, " should": 1366, ".\"": 1367, " above": 1368, " origin": 1369, " Valley": 1370, " university": 1371, "label": 1372, "Democratic": 1373, " During": 1374, " Post": 1375, "1995": 1376, "cnn": 1377, " Public": 1378, " referred": 1379, " market": 1380, " To": 1381, "42": 1382, " Olympics": 1383, "Short": 1384, " films": 1385, " Bank": 1386, "tv": 1387, " Studies": 1388, "default": 1389, " towns": 1390, "\"/><": 1391, " short": 1392, " God": 1393, "87": 1394, " outside": 1395, "Paul": 1396, " Congress": 1397, " recorded": 1398, " open": 1399, " 1995": 1400, "rd": 1401, "39": 1402, " next": 1403, " et": 1404, "GB": 1405, " design": 1406, " construction": 1407, " Lake": 1408, " Mississippi": 1409, "36": 1410, "200": 1411, " cancer": 1412, " described": 1413, "class": 1414, " full": 1415, "Royal": 1416, "sub": 1417, " Norway": 1418, " size": 1419, "First": 1420, " sun": 1421, " certain": 1422, "climate": 1423, " Prize": 1424, " band": 1425, "home": 1426, " Pacific": 1427, " FC": 1428, " particularly": 1429, " James": 1430, " Austria": 1431, " Time": 1432, "\n\nA": 1433, " northern": 1434, ";–": 1435, "ch": 1436, " width": 1437, "]])<": 1438, " Polish": 1439, " white": 1440, " southern": 1441, " island": 1442, "Chinese": 1443, " snow": 1444, "global": 1445, " insurance": 1446, " evidence": 1447, " teams": 1448, "]]||": 1449, " 1991": 1450, " 40": 1451, " Latin": 1452, "Great": 1453, " court": 1454, " according": 1455, " Life": 1456, " ice": 1457, " Shanghai": 1458, "1989": 1459, "41": 1460, "display": 1461, " rule": 1462, "]].{{": 1463, "sort": 1464, " Data": 1465, "37": 1466, " Scotland": 1467, " students": 1468, " length": 1469, " Best": 1470, " Lithuania": 1471, " humans": 1472, " commonly": 1473, " network": 1474, " Civil": 1475, " river": 1476, " introduced": 1477, " head": 1478, "public": 1479, "series": 1480, "60": 1481, " universities": 1482, " legal": 1483, "shtml": 1484, "Russian": 1485, " Christmas": 1486, "Old": 1487, " served": 1488, " districts": 1489, " hockey": 1490, "table": 1491, " According": 1492, " private": 1493, " nation": 1494, "124": 1495, "King": 1496, "]]).": 1497, " cases": 1498, "Australia": 1499, "Flag": 1500, "Reflist": 1501, " Oxford": 1502, " background": 1503, "55": 1504, " Guide": 1505, " architecture": 1506, "70": 1507, " animals": 1508, " particular": 1509, "Thomas": 1510, " Minnesota": 1511, "library": 1512, "1991": 1513, " section": 1514, " original": 1515, " union": 1516, " win": 1517, " lower": 1518, " crisis": 1519, "wp": 1520, " Population": 1521, "short": 1522, " 1960": 1523, " Northern": 1524, "pmc": 1525, " temperature": 1526, "score": 1527, " larger": 1528, "sites": 1529, "What": 1530, " Is": 1531, " addition": 1532, "government": 1533, "people": 1534, "sports": 1535, " Angeles": 1536, " \n": 1537, "based": 1538, "df": 1539, "500": 1540, " Parliament": 1541, " Human": 1542, "be": 1543, " 1999": 1544, " rather": 1545, "see": 1546, " relations": 1547, " Book": 1548, " Hill": 1549, " current": 1550, " rock": 1551, " Sea": 1552, "nba": 1553, "1994": 1554, "43": 1555, " Social": 1556, "number": 1557, "album": 1558, "britannica": 1559, "Irish": 1560, "span": 1561, "V": 1562, "East": 1563, "38": 1564, " Middle": 1565, " value": 1566, " 1996": 1567, "Other": 1568, " oldest": 1569, " buildings": 1570, "nvsr": 1571, " 1998": 1572, " Thomas": 1573, " RD": 1574, "u": 1575, " musician": 1576, " see": 1577, " you": 1578, " Its": 1579, " 1997": 1580, " Road": 1581, " native": 1582, " System": 1583, " refer": 1584, " 1992": 1585, "k": 1586, " caused": 1587, " view": 1588, " special": 1589, " Brazil": 1590, "|<": 1591, " available": 1592, " territory": 1593, " Spain": 1594, "after": 1595, "|(": 1596, " isbn": 1597, " territories": 1598, "49": 1599, " Since": 1600, " becomes": 1601, "int": 1602, "uploads": 1603, "w": 1604, "Poland": 1605, "image": 1606, "ru": 1607, "Melbourne": 1608, " male": 1609, "Indian": 1610, " sign": 1611, " Sciences": 1612, " past": 1613, " possible": 1614, " release": 1615, "Polish": 1616, " primary": 1617, " Year": 1618, " followed": 1619, " David": 1620, "flag": 1621, " almost": 1622, "Government": 1623, " Asian": 1624, " itself": 1625, "trans": 1626, "health": 1627, " Romania": 1628, " individual": 1629, " policy": 1630, " 1994": 1631, "Greek": 1632, "law": 1633, " Historical": 1634, " col": 1635, " d": 1636, " written": 1637, " When": 1638, " nature": 1639, "today": 1640, " love": 1641, "war": 1642, "Authority": 1643, " era": 1644, " round": 1645, " Business": 1646, "dq": 1647, "local": 1648, " we": 1649, " Division": 1650, "Al": 1651, "1988": 1652, "People": 1653, " settlement": 1654, "1007": 1655, "0000": 1656, " Town": 1657, " FIFA": 1658, "other": 1659, " Dublin": 1660, " changes": 1661, " institutions": 1662, " Corporation": 1663, " Trump": 1664, "china": 1665, " billion": 1666, " label": 1667, "}}\"": 1668, " Switzerland": 1669, "]]''.": 1670, " Area": 1671, "48": 1672, "ie": 1673, " defined": 1674, "goal": 1675, " Centre": 1676, " Film": 1677, "San": 1678, "44": 1679, "External": 1680, " Media": 1681, " Mars": 1682, " results": 1683, " text": 1684, "               ": 1685, " plants": 1686, "futsal": 1687, " 1989": 1688, " killing": 1689, " league": 1690, "largest": 1691, "president": 1692, "88": 1693, " Democratic": 1694, "research": 1695, "51": 1696, " y": 1697, " estimated": 1698, " today": 1699, " places": 1700, " centuries": 1701, "border": 1702, " run": 1703, "’": 1704, "search": 1705, "international": 1706, " away": 1707, " Global": 1708, " Mexico": 1709, " aircraft": 1710, " far": 1711, "India": 1712, " White": 1713, " black": 1714, "About": 1715, " western": 1716, " Black": 1717, "California": 1718, " mostly": 1719, " Summer": 1720, " unit": 1721, " independent": 1722, "52": 1723, " Calgary": 1724, " Information": 1725, "75": 1726, "Texas": 1727, "how": 1728, " Revolution": 1729, " attack": 1730, " story": 1731, "l": 1732, " great": 1733, "1986": 1734, " female": 1735, " goals": 1736, " Ukraine": 1737, "hi": 1738, "gallery": 1739, "cfm": 1740, "Prime": 1741, "An": 1742, "White": 1743, " works": 1744, " opened": 1745, " plant": 1746, " below": 1747, " event": 1748, "46": 1749, " influence": 1750, " Heritage": 1751, " lead": 1752, " host": 1753, " Israel": 1754, " 1950": 1755, " Paul": 1756, " Age": 1757, "1993": 1758, "caption": 1759, " tennis": 1760, ".}}</": 1761, " position": 1762, " 1993": 1763, " Award": 1764, "47": 1765, "&#": 1766, "Nobel": 1767, " divided": 1768, "code": 1769, "]]{{": 1770, " foreign": 1771, "Mark": 1772, "Washington": 1773, " fire": 1774, " society": 1775, "statistics": 1776, " son": 1777, " variety": 1778, " lake": 1779, "Donald": 1780, " man": 1781, " specific": 1782, "what": 1783, " practice": 1784, " mass": 1785, " score": 1786, " Inc": 1787, " moved": 1788, " She": 1789, " taken": 1790, " race": 1791, " Culture": 1792, " category": 1793, "Chicago": 1794, " takes": 1795, " Modern": 1796, "east": 1797, " regional": 1798, " islands": 1799, " ground": 1800, " again": 1801, " III": 1802, " His": 1803, " village": 1804, " whose": 1805, " project": 1806, " reported": 1807, " features": 1808, " conditions": 1809, " version": 1810, " Smith": 1811, "most": 1812, " lakes": 1813, "vauthors": 1814, " recent": 1815, " 1988": 1816, "Japan": 1817, " Royal": 1818, " beginning": 1819, "):": 1820, " Sports": 1821, "Human": 1822, "off": 1823, " Korea": 1824, " Robert": 1825, "al": 1826, "Lang": 1827, "Vietnam": 1828, " elements": 1829, "Canadian": 1830, "Spanish": 1831, " residents": 1832, " William": 1833, " Arts": 1834, "Eastern": 1835, " Technology": 1836, " computer": 1837, "Christian": 1838, " together": 1839, " units": 1840, " concept": 1841, " Force": 1842, "langx": 1843, " Moldova": 1844, "archives": 1845, "map": 1846, " Bayern": 1847, " started": 1848, " Police": 1849, " Louis": 1850, "given": 1851, " engineering": 1852, " material": 1853, " required": 1854, "white": 1855, "General": 1856, "stm": 1857, " commercial": 1858, "Canada": 1859, " Festival": 1860, " complex": 1861, "Jan": 1862, " San": 1863, " rugby": 1864, " numbers": 1865, " Conference": 1866, " ranked": 1867, " silver": 1868, " Qatar": 1869, " See": 1870, " summer": 1871, " limited": 1872, " Region": 1873, " tax": 1874, " upon": 1875, " effect": 1876, " officer": 1877, " Series": 1878, " studies": 1879, " provided": 1880, " self": 1881, "documents": 1882, "La": 1883, "Global": 1884, " loss": 1885, "red": 1886, "reflist": 1887, "dictionary": 1888, " management": 1889, "Republican": 1890, " income": 1891, "84": 1892, "travel": 1893, "education": 1894, " oil": 1895, "300": 1896, " designed": 1897, "un": 1898, " coach": 1899, " communities": 1900, " physical": 1901, " article": 1902, "=%": 1903, "h": 1904, "*''": 1905, "culture": 1906, "/>[[": 1907, " vote": 1908, " received": 1909, " authority": 1910, "65": 1911, " Bay": 1912, " Beijing": 1913, " Daily": 1914, " once": 1915, " Olympic": 1916, "jp": 1917, " army": 1918, " mid": 1919, ".}}": 1920, " care": 1921, " editor": 1922, "cropped": 1923, " democracy": 1924, " help": 1925, " announced": 1926, "an": 1927, " lost": 1928, " Today": 1929, "Latin": 1930, " Commission": 1931, " strong": 1932, " wins": 1933, " seven": 1934, "IPA": 1935, " thus": 1936, " annual": 1937, " Jr": 1938, " approximately": 1939, "Reuters": 1940, " continued": 1941, " tradition": 1942, " sport": 1943, "Suzuki": 1944, " words": 1945, "eng": 1946, "Kingdom": 1947, "are": 1948, "Martin": 1949, " 1986": 1950, " re": 1951, " arts": 1952, "Kentucky": 1953, " Platform": 1954, " says": 1955, " months": 1956, " humidity": 1957, " Of": 1958, " makes": 1959, "human": 1960, "67": 1961, " college": 1962, "How": 1963, "environment": 1964, " Province": 1965, "No": 1966, " Scottish": 1967, "Battle": 1968, " Old": 1969, "states": 1970, "57": 1971, " night": 1972, " church": 1973, " points": 1974, " counties": 1975, " allowed": 1976, "nasa": 1977, " cause": 1978, " produce": 1979, " analysis": 1980, "(\"": 1981, " remains": 1982, " Organization": 1983, " flag": 1984, " smaller": 1985, " baseball": 1986, " themselves": 1987, "'''[[": 1988, " standard": 1989, " via": 1990, " s": 1991, "encyclopedia": 1992, " characters": 1993, " becoming": 1994, " While": 1995, "Ancient": 1996, "]]'''": 1997, "Iowa": 1998, " gas": 1999, "art": 2000, " cell": 2001, "like": 2002, "Henry": 2003, " e": 2004, "do": 2005, " Kong": 2006, " subdivision": 2007, "Cerro": 2008, " primarily": 2009, "end": 2010, "Dutch": 2011, " Online": 2012, "150": 2013, " Affairs": 2014, "Civic": 2015, " subject": 2016, " plays": 2017, " province": 2018, " need": 2019, " come": 2020, "Public": 2021, " 978": 2022, " federal": 2023, "64": 2024, " Eastern": 2025, " sea": 2026, "Q": 2027, "region": 2028, " Victoria": 2029, " remained": 2030, " Early": 2031, " stated": 2032, "='": 2033, " composer": 2034, "rank": 2035, " metropolitan": 2036, " Country": 2037, " king": 2038, "Daniel": 2039, " Water": 2040, " activity": 2041, " separate": 2042, " books": 2043, "elections": 2044, " Committee": 2045, " levels": 2046, "Federal": 2047, " civil": 2048, " thought": 2049, " ethnic": 2050, "cities": 2051, "54": 2052, " Luxembourg": 2053, "99": 2054, " able": 2055, "rp": 2056, "life": 2057, " Mary": 2058, " move": 2059, " sources": 2060, " widely": 2061, " Grand": 2062, " Navy": 2063, "95": 2064, " hand": 2065, ".&": 2066, " risk": 2067, "military": 2068, "Japanese": 2069, " close": 2070, " goal": 2071, " saw": 2072, "more": 2073, "]</": 2074, "registration": 2075, "/~": 2076, " brought": 2077, " create": 2078, " dynasty": 2079, " minister": 2080, "ua": 2081, "Catholic": 2082, "Soviet": 2083, ">''": 2084, " working": 2085, " Survey": 2086, " longer": 2087, " father": 2088, " competition": 2089, " poet": 2090, " Creek": 2091, "old": 2092, "fifa": 2093, " 1983": 2094, "Avro": 2095, " disease": 2096, " del": 2097, " property": 2098, "Sydney": 2099, " van": 2100, ":<": 2101, " resources": 2102, " impact": 2103, " 32": 2104, "Billboard": 2105, " running": 2106, " Philippines": 2107, " 60": 2108, "]}}": 2109, "stories": 2110, " star": 2111, " products": 2112, "one": 2113, " return": 2114, " independence": 2115, " greater": 2116, " Renaissance": 2117, " families": 2118, " refers": 2119, " Co": 2120, " post": 2121, "Lake": 2122, "game": 2123, "82": 2124, " Madonna": 2125, " Welsh": 2126, "movies": 2127, " likely": 2128, " laws": 2129, "66": 2130, " Jewish": 2131, "Los": 2132, " activities": 2133, "1984": 2134, "script": 2135, "europa": 2136, " Southern": 2137, " Carnival": 2138, " rise": 2139, "58": 2140, " synonym": 2141, "Science": 2142, " towards": 2143, " died": 2144, " Brazilian": 2145, " literature": 2146, "multiref": 2147, "68": 2148, " 1981": 2149, " elevation": 2150, " clubs": 2151, "56": 2152, "|#": 2153, " collection": 2154, "92": 2155, " Religion": 2156, " wide": 2157, "group": 2158, "?|": 2159, " program": 2160, " Language": 2161, "USA": 2162, "format": 2163, " George": 2164, " directly": 2165, "watch": 2166, "weather": 2167, " degree": 2168, " good": 2169, " whole": 2170, " rivers": 2171, " Bristol": 2172, " Aux": 2173, "countries": 2174, " rail": 2175, " mining": 2176, " financial": 2177, " rain": 2178, " definition": 2179, " Britannica": 2180, "Sfn": 2181, " eastern": 2182, "doc": 2183, "stadium": 2184, " car": 2185, "Edward": 2186, " 1984": 2187, " Community": 2188, " dmy": 2189, " Index": 2190, "1983": 2191, "{": 2192, "\nA": 2193, " code": 2194, "Ian": 2195, " chess": 2196, "Routledge": 2197, "1987": 2198, " compared": 2199, "blog": 2200, "Northern": 2201, " issues": 2202, "billion": 2203, "match": 2204, " Two": 2205, " stars": 2206, " Open": 2207, "\n\nOn": 2208, " academic": 2209, " nearly": 2210, " playing": 2211, " encyclopedia": 2212, " stage": 2213, " Station": 2214, " future": 2215, " Show": 2216, " methods": 2217, " earthquake": 2218, " 1940": 2219, " instead": 2220, " originally": 2221, "France": 2222, "Madonna": 2223, "--": 2224, "Further": 2225, " provides": 2226, "59": 2227, " never": 2228, " Ages": 2229, " highly": 2230, " relatively": 2231, " organization": 2232, " 1987": 2233, " Jones": 2234, "Springer": 2235, " edition": 2236, " hunting": 2237, "89": 2238, " 1985": 2239, "DB": 2240, " Forces": 2241, "loc": 2242, " Coast": 2243, " middle": 2244, "docs": 2245, "SIN": 2246, "press": 2247, " 200": 2248, "],": 2249, " earliest": 2250, "Southern": 2251, " start": 2252, "Gavin": 2253, " Red": 2254, "font": 2255, " domestic": 2256, " famous": 2257, " rates": 2258, "o": 2259, "inline": 2260, " EU": 2261, " ever": 2262, " novel": 2263, " Corps": 2264, " Bridge": 2265, " Magazine": 2266, " Krishna": 2267, " medical": 2268, " des": 2269, " 1972": 2270, " medieval": 2271, " key": 2272, " young": 2273, " administrative": 2274, "social": 2275, " bank": 2276, "africa": 2277, " wrestling": 2278, " training": 2279, " earlier": 2280, "auto": 2281, " Although": 2282, " Power": 2283, "nla": 2284, " Jan": 2285, "61": 2286, " sound": 2287, "%),": 2288, " behind": 2289, " Joseph": 2290, " rank": 2291, "cms": 2292, "Shanghai": 2293, "Toronto": 2294, "review": 2295, " Independent": 2296, " zone": 2297, " Johnson": 2298, ",\"": 2299, " tournament": 2300, " Men": 2301, "1980": 2302, " Star": 2303, " Agency": 2304, "go": 2305, " Orthodox": 2306, "legend": 2307, " Paris": 2308, " Game": 2309, "geo": 2310, "aljazeera": 2311, "high": 2312, " 35": 2313, " Chile": 2314, " More": 2315, " division": 2316, " Medicine": 2317, " environment": 2318, "}}}}": 2319, "cgi": 2320, " wrote": 2321, " Who": 2322, " Hindu": 2323, " Sun": 2324, " radio": 2325, " Mexican": 2326, " Cambridge": 2327, " interest": 2328, " Rights": 2329, " lines": 2330, " Charles": 2331, "years": 2332, " reached": 2333, " figure": 2334, "FIFA": 2335, " Swiss": 2336, " intelligence": 2337, " seat": 2338, " ago": 2339, "Memecylon": 2340, "agency": 2341, "}}.<": 2342, " cricket": 2343, " 1973": 2344, " serve": 2345, " largely": 2346, " v": 2347, " Senate": 2348, " Idaho": 2349, " Politics": 2350, " Climate": 2351, ">}}": 2352, " function": 2353, "general": 2354, " officially": 2355, "78": 2356, "newspapers": 2357, "53": 2358, " performance": 2359, " display": 2360, " Final": 2361, " winter": 2362, " theatre": 2363, " Green": 2364, " pandemic": 2365, ".''": 2366, "Germany": 2367, " museum": 2368, "madonna": 2369, " front": 2370, " der": 2371, "Pacific": 2372, " Prime": 2373, "Ministry": 2374, " get": 2375, " contains": 2376, " Theatre": 2377, "goals": 2378, " numerous": 2379, "abs": 2380, " successful": 2381, "record": 2382, " fields": 2383, " here": 2384, "1080": 2385, "=&": 2386, "long": 2387, " notable": 2388, " hold": 2389, "House": 2390, " action": 2391, "*[": 2392, " horse": 2393, " 1965": 2394, " sex": 2395, "archiveurl": 2396, "archivedate": 2397, "Second": 2398, "Dallas": 2399, " mainly": 2400, "91": 2401, " i": 2402, "Saint": 2403, " Governor": 2404, " shows": 2405, "Nature": 2406, " animal": 2407, " Futsal": 2408, " sense": 2409, " child": 2410, " sector": 2411, " Federation": 2412, " Ancient": 2413, " hours": 2414, " Policy": 2415, "may": 2416, " citizens": 2417, " 1967": 2418, " Ocean": 2419, " colleges": 2420, "Joe": 2421, " woman": 2422, " rural": 2423, "Top": 2424, " 1971": 2425, " Cities": 2426, "62": 2427, "1038": 2428, "not": 2429, " eight": 2430, "83": 2431, " Castle": 2432, "players": 2433, " deaths": 2434, " 1982": 2435, "its": 2436, " individuals": 2437, "out": 2438, " 1945": 2439, " Temple": 2440, "basketball": 2441, " You": 2442, "93": 2443, " Basketball": 2444, "middle": 2445, " Volume": 2446, " 1968": 2447, "1970": 2448, " 500": 2449, " stations": 2450, " Official": 2451, " amount": 2452, "Russia": 2453, "Music": 2454, " shot": 2455, " whether": 2456, " scientific": 2457, " von": 2458, " 80": 2459, " resulting": 2460, " Holy": 2461, " scale": 2462, "\")": 2463, "term": 2464, " Bolivia": 2465, " Political": 2466, "]]-": 2467, " 1974": 2468, "video": 2469, " 1979": 2470, " Awards": 2471, " association": 2472, " Saint": 2473, " Federal": 2474, " prime": 2475, " table": 2476, "results": 2477, " Michael": 2478, " Championships": 2479, " better": 2480, "hdl": 2481, "nature": 2482, " consists": 2483, " X": 2484, "Census": 2485, " virus": 2486, " populations": 2487, " journalist": 2488, " Representatives": 2489, " additional": 2490, " AI": 2491, "features": 2492, " governor": 2493, " tree": 2494, "player": 2495, " height": 2496, "Grand": 2497, " direction": 2498, " houses": 2499, "gc": 2500, "}};": 2501, " Yugoslavia": 2502, " board": 2503, " presence": 2504, " industrial": 2505, " Brown": 2506, " structures": 2507, ");": 2508, " protests": 2509, " 70": 2510, " adopted": 2511, " Constitution": 2512, " council": 2513, "Florida": 2514, "india": 2515, " Motor": 2516, " little": 2517, " Foreign": 2518, " divisions": 2519, " 33": 2520, " fourth": 2521, "change": 2522, " Intelligence": 2523, " derived": 2524, " feature": 2525, " response": 2526, " infrastructure": 2527, " comes": 2528, "death": 2529, "]].]]": 2530, " career": 2531, "Italian": 2532, "portal": 2533, "98": 2534, "total": 2535, " square": 2536, " If": 2537, "season": 2538, " alt": 2539, "rowspan": 2540, " knowledge": 2541, "1093": 2542, "line": 2543, "cup": 2544, " psychology": 2545, " entire": 2546, " always": 2547, "Year": 2548, "94": 2549, "Early": 2550, "−": 2551, " fall": 2552, " Gold": 2553, "publication": 2554, "post": 2555, " materials": 2556, "Virginia": 2557, " direct": 2558, " campaign": 2559, " surrounding": 2560, " Township": 2561, " symbol": 2562, " replaced": 2563, " allow": 2564, "round": 2565, " basis": 2566, " Francisco": 2567, "independent": 2568, " div": 2569, " eventually": 2570, " personal": 2571, " How": 2572, "72": 2573, "Dublin": 2574, " racing": 2575, " problems": 2576, " worldwide": 2577, " real": 2578, "74": 2579, " Carolina": 2580, " 90": 2581, " c": 2582, "FC": 2583, "79": 2584, "book": 2585, " spread": 2586, " troops": 2587, "CNN": 2588, "ec": 2589, " Peter": 2590, "Alexander": 2591, " en": 2592, "}}.</": 2593, "show": 2594, "Population": 2595, "final": 2596, "'''''": 2597, "Juan": 2598, " Auckland": 2599, " Mar": 2600, " method": 2601, " Oceania": 2602, "Encyclopedia": 2603, " learning": 2604, " our": 2605, " Network": 2606, "Image": 2607, "Social": 2608, "                ": 2609, " constituency": 2610, "blockquote": 2611, " formation": 2612, " effects": 2613, " villages": 2614, " completed": 2615, "colspan": 2616, " Secretary": 2617, " 1977": 2618, ".)": 2619, "Military": 2620, " green": 2621, "77": 2622, "Nov": 2623, " speed": 2624, "Report": 2625, "73": 2626, " density": 2627, " previous": 2628, "mode": 2629, " Space": 2630, " Liechtenstein": 2631, " Iran": 2632, "apnews": 2633, "1945": 2634, " product": 2635, " empire": 2636, "dmy": 2637, "All": 2638, " 34": 2639, " entry": 2640, " Portuguese": 2641, " statistics": 2642, " Board": 2643, " signed": 2644, " occur": 2645, " Records": 2646, " airport": 2647, " bar": 2648, "News": 2649, " invasion": 2650, "Y": 2651, "Red": 2652, " account": 2653, " engine": 2654, "which": 2655, " ten": 2656, " workers": 2657, " Line": 2658, "Religion": 2659, "Ben": 2660, "On": 2661, " traditions": 2662, "AF": 2663, " Project": 2664, "97": 2665, " About": 2666, "govt": 2667, " Francis": 2668, " evolution": 2669, "DEFAULTSORT": 2670, " rest": 2671, " Kansas": 2672, " seats": 2673, " wife": 2674, " That": 2675, " growing": 2676, "=-": 2677, "ABC": 2678, " equipment": 2679, "1985": 2680, " too": 2681, " co": 2682, " find": 2683, " base": 2684, "Free": 2685, "African": 2686, " Tour": 2687, " What": 2688, "',": 2689, " fact": 2690, "Republic": 2691, "England": 2692, " Trade": 2693, "96": 2694, " Dec": 2695, " Democracy": 2696, " Energy": 2697, " candidate": 2698, " course": 2699, " 1978": 2700, "arts": 2701, "air": 2702, "Oregon": 2703, " conflict": 2704, " track": 2705, " matter": 2706, " Henry": 2707, " 45": 2708, " currently": 2709, " Kharkiv": 2710, " etc": 2711, " already": 2712, " might": 2713, " Theory": 2714, " 1966": 2715, " month": 2716, "York": 2717, " Rotterdam": 2718, " rice": 2719, " Foundation": 2720, " 1930": 2721, " politics": 2722, "topic": 2723, "71": 2724, " bishop": 2725, " ability": 2726, " review": 2727, "76": 2728, " prominent": 2729, " put": 2730, "Time": 2731, " 1975": 2732, " headquarters": 2733, " ocean": 2734, "non": 2735, " executive": 2736, " Security": 2737, " musical": 2738, "Pages": 2739, "nowrap": 2740, " turn": 2741, " train": 2742, " Their": 2743, " Islamic": 2744, " added": 2745, "\n\nThere": 2746, " And": 2747, "''),": 2748, " submarine": 2749, "cdc": 2750, "indiatimes": 2751, " deal": 2752, " occurs": 2753, "63": 2754, " Century": 2755, "~": 2756, " experience": 2757, " Administration": 2758, "why": 2759, " go": 2760, "over": 2761, " believed": 2762, " decision": 2763, " medicine": 2764, " lack": 2765, " begins": 2766, " plan": 2767, "Philippines": 2768, " Forest": 2769, " Study": 2770, "section": 2771, "Greece": 2772, " gave": 2773, ">]]": 2774, "best": 2775, " dance": 2776, "Israel": 2777, "food": 2778, " money": 2779, " classification": 2780, " potential": 2781, " 1976": 2782, " represented": 2783, " Al": 2784, " La": 2785, " active": 2786, "\n\nAs": 2787, " housing": 2788, " agricultural": 2789, "Missouri": 2790, "start": 2791, " operations": 2792, "|+": 2793, "Middle": 2794, "As": 2795, " historian": 2796, "Ohio": 2797, " approach": 2798, "political": 2799, "value": 2800, " writing": 2801, " street": 2802, "binary": 2803, "now": 2804, "States": 2805, " Regional": 2806, " 36": 2807, "Columbia": 2808, " relationship": 2809, "release": 2810, " records": 2811, "cricket": 2812, " responsible": 2813, " Swedish": 2814, " changed": 2815, " Free": 2816, " sold": 2817, " travel": 2818, " manufacturing": 2819, " coast": 2820, " Team": 2821, " murder": 2822, "Fort": 2823, " creation": 2824, "land": 2825, " online": 2826, "south": 2827, "1981": 2828, "69": 2829, " complete": 2830, " Williams": 2831, "Frank": 2832, " Danish": 2833, "'']]": 2834, " featuring": 2835, " Austrian": 2836, " roads": 2837, " Under": 2838, " Americas": 2839, " artists": 2840, " historic": 2841, "level": 2842, "''.<": 2843, " mother": 2844, " Non": 2845, ">:": 2846, " ways": 2847, " cannot": 2848, " act": 2849, "west": 2850, "ed": 2851, " Cricket": 2852, "ja": 2853, " factors": 2854, "]]\",": 2855, " Jews": 2856, "fa": 2857, "canada": 2858, " Jesus": 2859, "Beijing": 2860, "400": 2861, " newspaper": 2862, " Supreme": 2863, " latter": 2864, "youtube": 2865, "County": 2866, " titles": 2867, "Big": 2868, " ended": 2869, " launched": 2870, " Railway": 2871, "Queen": 2872, " arms": 2873, " cover": 2874, " programs": 2875, "Asian": 2876, " parties": 2877, " Derby": 2878, " Serbian": 2879, " pre": 2880, " chief": 2881, " Management": 2882, " soil": 2883, " Korean": 2884, " Feb": 2885, " distinct": 2886, "PT": 2887, " capita": 2888, " leaves": 2889, "Football": 2890, " older": 2891, " 75": 2892, " behavior": 2893, "High": 2894, "Oct": 2895, " discovered": 2896, " Oct": 2897, " trafficking": 2898, " shown": 2899, " COVID": 2900, " went": 2901, " festival": 2902, "|'''": 2903, " Voivodeship": 2904, " involved": 2905, " performed": 2906, " showing": 2907, "Smith": 2908, "system": 2909, "Statistics": 2910, " Nov": 2911, " chart": 2912, "Minnesota": 2913, " reference": 2914, " nations": 2915, "transliteration": 2916, " AD": 2917, " security": 2918, " secondary": 2919, "\"<": 2920, " NBA": 2921, " Authority": 2922, " inhabitants": 2923, "1973": 2924, "}}|": 2925, " quality": 2926, " Radio": 2927, "event": 2928, " idea": 2929, "Andrew": 2930, " Man": 2931, " previously": 2932, "El": 2933, " Land": 2934, "afghanistan": 2935, "Bristol": 2936, " traffic": 2937, " 1969": 2938, " Jun": 2939, "we": 2940, "house": 2941, " referendum": 2942, " proposed": 2943, "washingtonpost": 2944, " figures": 2945, " heavy": 2946, " bodies": 2947, "z": 2948, " exist": 2949, " Y": 2950, "wikt": 2951, " Rome": 2952, "1911": 2953, " watch": 2954, " machine": 2955, " pressure": 2956, " anti": 2957, " cost": 2958, " dam": 2959, " test": 2960, " applied": 2961, " identity": 2962, " opponent": 2963, "leader": 2964, " success": 2965, " influenced": 2966, "Brazil": 2967, " grew": 2968, " festivals": 2969, " claims": 2970, " classical": 2971, "1975": 2972, "present": 2973, " 1961": 2974, " Sport": 2975, " Television": 2976, " importance": 2977, "De": 2978, " techniques": 2979, "Party": 2980, " mdy": 2981, " yards": 2982, " References": 2983, " Psychology": 2984, " remaining": 2985, "Nadia": 2986, " share": 2987, " joined": 2988, " Field": 2989, " library": 2990, " identified": 2991, " Sep": 2992, " Hong": 2993, " respectively": 2994, "Dec": 2995, " overall": 2996, "  The": 2997, " increasing": 2998, "110": 2999, " Cultural": 3000, "Mar": 3001, " leaders": 3002, " declared": 3003, " fear": 3004, "Episode": 3005, " processes": 3006, " distribution": 3007, " viruses": 3008, " combined": 3009, " ship": 3010, " Egypt": 3011, " Lee": 3012, "ga": 3013, " appointed": 3014, "1982": 3015, "600": 3016, " Manchester": 3017, "facts": 3018, "}}),": 3019, " EpisodeNumber": 3020, " attempt": 3021, "Lee": 3022, "pop": 3023, " Columbia": 3024, " origins": 3025, " Aug": 3026, " Champions": 3027, " Kochi": 3028, " scholars": 3029, " Square": 3030, " models": 3031, " victory": 3032, " Song": 3033, "russia": 3034, " true": 3035, " purpose": 3036, " Ltd": 3037, "file": 3038, "Stephen": 3039, " worked": 3040, " 1964": 3041, "urban": 3042, "coronavirus": 3043, "reports": 3044, "Indiana": 3045, "|–": 3046, " digital": 3047, " Another": 3048, " Second": 3049, " Rugby": 3050, "Illinois": 3051, " trees": 3052, " lived": 3053, " Israeli": 3054, " soldiers": 3055, "Arthur": 3056, " songs": 3057, " Natural": 3058, " resulted": 3059, " passed": 3060, "space": 3061, " religions": 3062, " Iraq": 3063, "Anastasia": 3064, "120": 3065, "london": 3066, " Handbook": 3067, "1111": 3068, "scale": 3069, " 39": 3070, "Andreas": 3071, " placed": 3072, " port": 3073, " banks": 3074, " Apr": 3075, " Lublin": 3076, " remain": 3077, " 1954": 3078, " reach": 3079, " cultures": 3080, " composed": 3081, " peoples": 3082, " powers": 3083, " pass": 3084, "win": 3085, " Publications": 3086, " heat": 3087, " 1920": 3088, " Urban": 3089, "australia": 3090, "el": 3091, " carried": 3092, " Richard": 3093, " thousands": 3094, "footnotes": 3095, "footballer": 3096, "Sports": 3097, " Tripura": 3098, " purposes": 3099, " branch": 3100, " crime": 3101, "1972": 3102, " protection": 3103, "node": 3104, " exchange": 3105, " opposition": 3106, "Tom": 3107, "releases": 3108, "Italy": 3109, " mixed": 3110, "school": 3111, " focus": 3112, " Martin": 3113, "]]''.<": 3114, "Education": 3115, " unique": 3116, "big": 3117, "Feb": 3118, "kgf": 3119, " Philosophy": 3120, "521": 3121, "Ireland": 3122, " silk": 3123, "Climate": 3124, " gender": 3125, " Military": 3126, " Norwegian": 3127, " List": 3128, " cricketer": 3129, " Jul": 3130, " enough": 3131, " done": 3132, "Don": 3133, " Cross": 3134, " keep": 3135, " 1963": 3136, " Commonwealth": 3137, " basic": 3138, " inside": 3139, "including": 3140, " Gaza": 3141, " Atlantic": 3142, " develop": 3143, " spoken": 3144, " seasons": 3145, "college": 3146, " Sweden": 3147, " reading": 3148, " officials": 3149, " meeting": 3150, "Data": 3151, " appeared": 3152, " Season": 3153, "Historical": 3154, " Nice": 3155, "power": 3156, " shape": 3157, "authors": 3158, "|°": 3159, " Taylor": 3160, "Why": 3161, " therefore": 3162, "''',": 3163, " press": 3164, "band": 3165, " occurred": 3166, " museums": 3167, "1968": 3168, "Jun": 3169, "result": 3170, "1976": 3171, " agriculture": 3172, " cross": 3173, " temperatures": 3174, " painter": 3175, " Lord": 3176, "Baghdadi": 3177, "age": 3178, " persons": 3179, " claimed": 3180, " occupation": 3181, "black": 3182, " decades": 3183, " Emperor": 3184, " context": 3185, "\"]": 3186, " Building": 3187, " facilities": 3188, "Romania": 3189, " covered": 3190, "Best": 3191, " examples": 3192, "1979": 3193, " minutes": 3194, "york": 3195, " garden": 3196, " prevent": 3197, " marriage": 3198, " creating": 3199, " governments": 3200, " 37": 3201, " Fire": 3202, " Indonesia": 3203, " himself": 3204, "ar": 3205, " nuclear": 3206, " sites": 3207, " note": 3208, "that": 3209, "worldbank": 3210, " supply": 3211, " masculine": 3212, " settlements": 3213, " usage": 3214, " announces": 3215, "Jean": 3216, "Non": 3217, "Green": 3218, "reference": 3219, "density": 3220, "Aug": 3221, "colwidth": 3222, " closed": 3223, "Sir": 3224, " manager": 3225, "1960": 3226, " park": 3227, "information": 3228, "Google": 3229, " agreement": 3230, "second": 3231, " Defence": 3232, "Women": 3233, " activist": 3234, " capacity": 3235, " Bishop": 3236, "articleshow": 3237, " give": 3238, " organizations": 3239, "001": 3240, " Publishers": 3241, " mark": 3242, " constitution": 3243, " Introduction": 3244, " administration": 3245, " 300": 3246, " horses": 3247, " runs": 3248, " owned": 3249, " 38": 3250, " noted": 3251, " Change": 3252, "Afghanistan": 3253, "Hispanic": 3254, " flight": 3255, "101": 3256, "2307": 3257, "PDF": 3258, "Apr": 3259, " vehicle": 3260, " Christianity": 3261, "cvt": 3262, " distance": 3263, "|\"": 3264, " recognized": 3265, " extensive": 3266, " m": 3267, " authorities": 3268, " winning": 3269, "mm": 3270, "NASA": 3271, " tournaments": 3272, "COVID": 3273, " Home": 3274, "rugby": 3275, "area": 3276, "pt": 3277, "tr": 3278, " treatment": 3279, " USA": 3280, "Scott": 3281, " forced": 3282, " Convention": 3283, " 1947": 3284, " Not": 3285, " vary": 3286, "resources": 3287, " 41": 3288, " contemporary": 3289, " operation": 3290, " metal": 3291, " officers": 3292, " allows": 3293, " founder": 3294, " formal": 3295, "|''[[": 3296, "=#": 3297, ";<": 3298, " 1962": 3299, "tennis": 3300, " nine": 3301, "Christmas": 3302, " problem": 3303, " depth": 3304, " hit": 3305, " appears": 3306, "250": 3307, "ancient": 3308, "Sep": 3309, "Adriana": 3310, "known": 3311, " reduce": 3312, " lands": 3313, " returned": 3314, "Serbia": 3315, "''|": 3316, " causes": 3317, "detail": 3318, "IPAc": 3319, "Union": 3320, " Cathedral": 3321, "timesofindia": 3322, " begin": 3323, "]]|[[": 3324, " taking": 3325, "related": 3326, " difficult": 3327, " vehicles": 3328, " BCE": 3329, "america": 3330, " philosophy": 3331, "family": 3332, "Mount": 3333, " GAA": 3334, " Jazz": 3335, " Kumar": 3336, " 65": 3337, " extended": 3338, "height": 3339, "university": 3340, " week": 3341, " tourism": 3342, "energy": 3343, "Official": 3344, "Z": 3345, " equivalent": 3346, "england": 3347, " Major": 3348, " Republican": 3349, " weather": 3350, "Election": 3351, "source": 3352, "stat": 3353, " Literature": 3354, "Independent": 3355, "usgs": 3356, " Rama": 3357, " societies": 3358, "official": 3359, " contact": 3360, " engineer": 3361, " births": 3362, " constructed": 3363, " functions": 3364, "Harvnb": 3365, " beyond": 3366, "ir": 3367, "Christopher": 3368, " stone": 3369, " characteristics": 3370, "open": 3371, "Europe": 3372, "telegraph": 3373, " Prince": 3374, "Water": 3375, " things": 3376, "Jonathan": 3377, " Nature": 3378, " pmc": 3379, "Culture": 3380, " passenger": 3381, "per": 3382, " Edward": 3383, "grc": 3384, " Young": 3385, " Duke": 3386, " fish": 3387, " Kagame": 3388, "such": 3389, " Engineering": 3390, "Jul": 3391, " tribes": 3392, " blue": 3393, " claim": 3394, " awarded": 3395, " Love": 3396, "(''[[": 3397, "Native": 3398, "].": 3399, " regular": 3400, "NCAA": 3401, " plans": 3402, " transportation": 3403, "Treaty": 3404, "full": 3405, " whom": 3406, " borders": 3407, "cia": 3408, " cuisine": 3409, " institution": 3410, " Pakistan": 3411, " Nazareth": 3412, " cycle": 3413, " Earl": 3414, "%,": 3415, "bot": 3416, " Resources": 3417, " Trinity": 3418, " damage": 3419, " Arab": 3420, "economic": 3421, " Blue": 3422, "Coralliophila": 3423, " letter": 3424, "×": 3425, " listed": 3426, "Bruce": 3427, "UEFA": 3428, " moving": 3429, " Medical": 3430, "pubs": 3431, " call": 3432, " Family": 3433, " 1900": 3434, " Ontario": 3435, " 44": 3436, "says": 3437, " matches": 3438, " di": 3439, "you": 3440, " Three": 3441, " Chhattisgarh": 3442, " violence": 3443, "Council": 3444, "Portal": 3445, " significantly": 3446, " signs": 3447, " bus": 3448, "Constitution": 3449, " churches": 3450, " municipality": 3451, " professor": 3452, " practices": 3453, " Wilson": 3454, " Peace": 3455, "Scottish": 3456, ").</": 3457, "NBA": 3458, "Calgary": 3459, " causing": 3460, "Taylor": 3461, " Garden": 3462, " Native": 3463, " Top": 3464, " avg": 3465, " Services": 3466, "]]–[[": 3467, "technology": 3468, "Association": 3469, "Mary": 3470, " expansion": 3471, " comedian": 3472, " Romanian": 3473, "ece": 3474, " poverty": 3475, " poor": 3476, " But": 3477, " Los": 3478, "||[[": 3479, "Nihongo": 3480, " Results": 3481, "speaking": 3482, " processing": 3483, " hosted": 3484, " safety": 3485, " providing": 3486, " contract": 3487, " allowing": 3488, "will": 3489, "multiple": 3490, "single": 3491, "women": 3492, "}": 3493, " Agriculture": 3494, "Auckland": 3495, " colonial": 3496, " Tourism": 3497, " Flight": 3498, " deep": 3499, " evolved": 3500, " Evolution": 3501, " mountain": 3502, "Country": 3503, " Christ": 3504, " Sharma": 3505, "IPAslink": 3506, "Howard": 3507, "blogs": 3508, " 43": 3509, " continue": 3510, " studio": 3511, "annotated": 3512, " ed": 3513, " Order": 3514, " businessman": 3515, " parliamentary": 3516, " contain": 3517, " face": 3518, " positions": 3519, " cent": 3520, " Herald": 3521, " Alliance": 3522, " Munich": 3523, " continues": 3524, "Iran": 3525, "Mississippi": 3526, "profile": 3527, "Department": 3528, " 1951": 3529, "Manchester": 3530, " 1959": 3531, " songwriter": 3532, " courts": 3533, " Minsk": 3534, "\">[": 3535, "online": 3536, " supported": 3537, "Lithuanian": 3538, "dts": 3539, " increasingly": 3540, " holds": 3541, " policies": 3542, " 42": 3543, "Art": 3544, "song": 3545, " castle": 3546, "Futsal": 3547, " necessary": 3548, " emerged": 3549, "\n\nDuring": 3550, "special": 3551, " leaving": 3552, "Serbian": 3553, "doctor": 3554, "vi": 3555, " understanding": 3556, " build": 3557, " content": 3558, "natural": 3559, " chapter": 3560, " describe": 3561, " lowest": 3562, " Historic": 3563, " 1941": 3564, "Portuguese": 3565, " decline": 3566, " objects": 3567, " frequently": 3568, " municipal": 3569, " Seiko": 3570, " Scott": 3571, " ends": 3572, " intended": 3573, "“": 3574, "songwriter": 3575, " Food": 3576, " w": 3577, " despite": 3578, "Jones": 3579, " weight": 3580, " Years": 3581, "baseball": 3582, " software": 3583, " recently": 3584, "Lord": 3585, "daily": 3586, " musicians": 3587, " da": 3588, "]]&": 3589, " hands": 3590, " Chess": 3591, " Territory": 3592, "wales": 3593, " cells": 3594, " Democrats": 3595, "AA": 3596, "intl": 3597, " needs": 3598, "none": 3599, " boundaries": 3600, " Edition": 3601, " lies": 3602, " 1939": 3603, "county": 3604, "toronto": 3605, " featured": 3606, " schedule": 3607, " 55": 3608, " Christians": 3609, "ukraine": 3610, " simple": 3611, " developing": 3612, " Chapter": 3613, " Over": 3614, " Me": 3615, "religious": 3616, "Islamic": 3617, " styles": 3618, " voice": 3619, " Vietnamese": 3620, " Capital": 3621, "kg": 3622, "Brown": 3623, " expanded": 3624, "1974": 3625, " sent": 3626, " Hospital": 3627, " cattle": 3628, "parliament": 3629, " window": 3630, " singles": 3631, " reduced": 3632, " operated": 3633, "League": 3634, " spring": 3635, " soon": 3636, " forest": 3637, "regional": 3638, "abc": 3639, "laws": 3640, "cc": 3641, "1971": 3642, " 1955": 3643, "***": 3644, " settlers": 3645, " Both": 3646, " victims": 3647, "athletes": 3648, "\n\nAccording": 3649, " bridge": 3650, "sex": 3651, " biggest": 3652, " 1942": 3653, "economy": 3654, " giving": 3655, " core": 3656, "our": 3657, " vs": 3658, " Digital": 3659, " portion": 3660, " Memorial": 3661, "Hamilton": 3662, " Winter": 3663, " directed": 3664, " marked": 3665, " calendar": 3666, " Statistical": 3667, " resistance": 3668, "religion": 3669, " attend": 3670, " coup": 3671, "Max": 3672, " conference": 3673, " Nobel": 3674, " operating": 3675, " 1946": 3676, " appear": 3677, " contrast": 3678, "subscription": 3679, "Business": 3680, ",{{": 3681, " opening": 3682, "qatar": 3683, "also": 3684, " Express": 3685, "Mexico": 3686, " stories": 3687, " Wars": 3688, "Associated": 3689, " fully": 3690, " kills": 3691, " generation": 3692, " organized": 3693, " lives": 3694, " tend": 3695, "police": 3696, " 1948": 3697, " continent": 3698, "sq": 3699, "download": 3700, " granted": 3701, "was": 3702, "guide": 3703, " ranks": 3704, " historians": 3705, "1967": 3706, "has": 3707, " typical": 3708, " Queen": 3709, "japan": 3710, " stadium": 3711, " municipalities": 3712, "si": 3713, "Bob": 3714, " goods": 3715, " Colombia": 3716, " Rwanda": 3717, " properties": 3718, " flow": 3719, " Origin": 3720, "heritage": 3721, "Qatar": 3722, " mission": 3723, " standards": 3724, " yet": 3725, " Biology": 3726, " connected": 3727, "noaa": 3728, " dry": 3729, " Environment": 3730, " solar": 3731, " voters": 3732, " offer": 3733, " locations": 3734, "1900": 3735, "green": 3736, " medal": 3737, "1002": 3738, "Jack": 3739, "gold": 3740, "For": 3741, " Facts": 3742, "ff": 3743, " Names": 3744, " 1949": 3745, "vn": 3746, "1978": 3747, " traditionally": 3748, " quarter": 3749, "virginia": 3750, " du": 3751, " gained": 3752, "moldova": 3753, " Also": 3754, "document": 3755, " painting": 3756, "''<": 3757, " Massachusetts": 3758, "museum": 3759, "Welsh": 3760, "dec": 3761, "Norman": 3762, " Place": 3763, ")|\"": 3764, " streets": 3765, "scope": 3766, " aspects": 3767, " toward": 3768, " Local": 3769, "stats": 3770, "actor": 3771, "1939": 3772, "Romanian": 3773, " Municipal": 3774, " route": 3775, "association": 3776, " bibcode": 3777, "Start": 3778, " Following": 3779, " enter": 3780, " estate": 3781, " Baseball": 3782, "Modern": 3783, " snakes": 3784, "baghdadi": 3785, " alternative": 3786, " Special": 3787, " fifth": 3788, "Commons": 3789, " hosts": 3790, " 46": 3791, " wave": 3792, " represent": 3793, " Systems": 3794, "company": 3795, " powerful": 3796, "two": 3797, " daily": 3798, "coord": 3799, "Richmond": 3800, "ghostarchive": 3801, " leave": 3802, "Economy": 3803, " brother": 3804, "israel": 3805, " Shropshire": 3806, " know": 3807, "1966": 3808, " industries": 3809, " genus": 3810, " provinces": 3811, " environmental": 3812, "lu": 3813, "three": 3814, " 48": 3815, " diverse": 3816, " periods": 3817, "frac": 3818, " texts": 3819, " celebrated": 3820, " 1956": 3821, " 250": 3822, " pay": 3823, " require": 3824, " involves": 3825, "Simon": 3826, "nuclear": 3827, " accepted": 3828, "jsp": 3829, " aid": 3830, " room": 3831, " investment": 3832, " fictional": 3833, " solid": 3834, " big": 3835, "Netherlands": 3836, "part": 3837, " brown": 3838, " frog": 3839, " Lithuanian": 3840, " Luftwaffe": 3841, " serves": 3842, " depending": 3843, " driver": 3844, " planning": 3845, " cold": 3846, "he": 3847, "Geography": 3848, "league": 3849, "Eric": 3850, "fi": 3851, "assets": 3852, "1964": 3853, " Independence": 3854, " Transport": 3855, "°": 3856, "true": 3857, " Grantham": 3858, " simply": 3859, " quickly": 3860, " External": 3861, " minority": 3862, " permanent": 3863, "vietnam": 3864, "cm": 3865, " forests": 3866, " rabbit": 3867, " snake": 3868, " Turkey": 3869, " Vol": 3870, " Sons": 3871, " ideas": 3872, " articles": 3873, "Radio": 3874, " observed": 3875, " break": 3876, "This": 3877, " surname": 3878, " wild": 3879, " Chief": 3880, "sec": 3881, " saints": 3882, " internal": 3883, " sets": 3884, " introduction": 3885, "latest": 3886, " Left": 3887, " blood": 3888, " values": 3889, " initially": 3890, " why": 3891, " dedicated": 3892, "unesco": 3893, "Adam": 3894, " object": 3895, " 1944": 3896, " Latino": 3897, " ships": 3898, " immigrants": 3899, " starting": 3900, " Ministry": 3901, "star": 3902, " except": 3903, "site": 3904, " Mark": 3905, "his": 3906, " 1958": 3907, " parliament": 3908, "River": 3909, "billboard": 3910, "Anderson": 3911, " communication": 3912, " Czech": 3913, " expected": 3914, " visible": 3915, "fact": 3916, " cup": 3917, " represents": 3918, " sortable": 3919, " upper": 3920, " heritage": 3921, " Jackson": 3922, "je": 3923, "CoV": 3924, " speech": 3925, "ID": 3926, " entertainment": 3927, " Davis": 3928, " annually": 3929, "Norwegian": 3930, "biography": 3931, " skin": 3932, " relative": 3933, " branches": 3934, "office": 3935, " unknown": 3936, " blank": 3937, " Khan": 3938, "town": 3939, " controlled": 3940, " alone": 3941, " projects": 3942, "Carl": 3943, "pacific": 3944, "Louis": 3945, "125": 3946, " conducted": 3947, " kind": 3948, "digital": 3949, "UNESCO": 3950, "society": 3951, " double": 3952, " Rock": 3953, " establishment": 3954, " De": 3955, " specifically": 3956, "Mike": 3957, "1977": 3958, " Story": 3959, " longest": 3960, " Herzegovina": 3961, " Muslim": 3962, " Athletic": 3963, " pattern": 3964, " combination": 3965, " ancestry": 3966, " soccer": 3967, " golf": 3968, " 1918": 3969, " Islam": 3970, " instance": 3971, " reason": 3972, " raised": 3973, "Game": 3974, " containing": 3975, " prior": 3976, " shift": 3977, "attendance": 3978, " 1957": 3979, "study": 3980, " coal": 3981, "Christianity": 3982, " walls": 3983, " Bible": 3984, " channel": 3985, "poland": 3986, " choice": 3987, " defeated": 3988, " Site": 3989, "mars": 3990, " Tennis": 3991, " wrestler": 3992, "invoke": 3993, " existence": 3994, " battle": 3995, "War": 3996, " mode": 3997, " rare": 3998, "1000": 3999, "united": 4000, " theories": 4001, "key": 4002, "),<": 4003, " 1953": 4004, " skills": 4005, " Premier": 4006, " martial": 4007, " scored": 4008, "computer": 4009, "chess": 4010, "%}}": 4011, " Zone": 4012, " Tower": 4013, "clade": 4014, " motion": 4015, " efforts": 4016, " captured": 4017, "1950": 4018, "fire": 4019, " staff": 4020, " serving": 4021, "                 ": 4022, "Corey": 4023, " Mountains": 4024, "800": 4025, " regarded": 4026, " Long": 4027, "From": 4028, " Religious": 4029, "Major": 4030, " Saints": 4031, " strength": 4032, " maximum": 4033, " UN": 4034, " removed": 4035, "events": 4036, " Metropolitan": 4037, "\n\nAfter": 4038, "Islam": 4039, " confirmed": 4040, "Boeing": 4041, " scene": 4042, " reports": 4043, " Analysis": 4044, "Port": 4045, " img": 4046, " scientist": 4047, " mechanical": 4048, " landscape": 4049, " meet": 4050, " electronic": 4051, " helped": 4052, " historically": 4053, "cultural": 4054, "surname": 4055, "Greater": 4056, " Ukrainian": 4057, "gr": 4058, " cut": 4059, " maintain": 4060, " linked": 4061, " Notes": 4062, "Paris": 4063, "Home": 4064, "1920": 4065, "1940": 4066, "Doctor": 4067, "dfe": 4068, "presidential": 4069, "north": 4070, " crash": 4071, " bottom": 4072, "community": 4073, " wall": 4074, " legislative": 4075, "Supreme": 4076, "trade": 4077, " democratic": 4078, " say": 4079, "Francis": 4080, " sales": 4081, "Ukraine": 4082, " roughly": 4083, "Church": 4084, " dominant": 4085, " add": 4086, " indigenous": 4087, " CE": 4088, "Media": 4089, " Arena": 4090, " pearls": 4091, "Johnson": 4092, " airports": 4093, " whereas": 4094, " drive": 4095, "\n\nSome": 4096, "Pope": 4097, " demographics": 4098, " Denmark": 4099, " artificial": 4100, " Big": 4101, "stable": 4102, "et": 4103, "Michigan": 4104, " popularity": 4105, " Race": 4106, "Holy": 4107, "patriots": 4108, " composition": 4109, " difference": 4110, " application": 4111, " strike": 4112, " classified": 4113, " Channel": 4114, "called": 4115, " Australians": 4116, "factbook": 4117, " suburbs": 4118, " mayor": 4119, " till": 4120, "Political": 4121, "=====": 4122, " fuel": 4123, " nearby": 4124, " protect": 4125, " injured": 4126, "Victoria": 4127, " 400": 4128, " temple": 4129, " measures": 4130, " cars": 4131, "da": 4132, " Labour": 4133, "Scotland": 4134, " destroyed": 4135, " medium": 4136, " recognition": 4137, " accounts": 4138, "Little": 4139, " lawyer": 4140, " perform": 4141, " pro": 4142, "games": 4143, " Among": 4144, " Congo": 4145, "Pennsylvania": 4146, "£": 4147, " Jazeera": 4148, "nsw": 4149, "golf": 4150, " Highway": 4151, " department": 4152, "Crocus": 4153, " We": 4154, " attacks": 4155, "modern": 4156, " Southeast": 4157, " Gallery": 4158, " degrees": 4159, " Part": 4160, "}}||": 4161, " offices": 4162, " presented": 4163, " demand": 4164, "Steven": 4165, " effective": 4166, "americas": 4167, ".-": 4168, " 1850": 4169, " armed": 4170, " l": 4171, "orig": 4172, "Prince": 4173, " Flag": 4174, " Treaty": 4175, " votes": 4176, "Bill": 4177, " Accessed": 4178, " failed": 4179, "Notes": 4180, " search": 4181, " 64": 4182, " settled": 4183, " sister": 4184, "min": 4185, " daughter": 4186, " Movement": 4187, "'|": 4188, " normal": 4189, "false": 4190, "Final": 4191, " format": 4192, " wine": 4193, "Jim": 4194, " Industry": 4195, " Trust": 4196, "Who": 4197, " Berlin": 4198, " diversity": 4199, " greatest": 4200, " Alexander": 4201, " Stone": 4202, " Palace": 4203, " married": 4204, " extent": 4205, " movie": 4206, " limit": 4207, "^": 4208, "artist": 4209, "Bishop": 4210, " Design": 4211, "UN": 4212, " Van": 4213, " personality": 4214, " concentration": 4215, " Broadcasting": 4216, "oregon": 4217, " heavily": 4218, " situation": 4219, " philosopher": 4220, ">,": 4221, "Air": 4222, "capital": 4223, " hour": 4224, " Biography": 4225, "cs": 4226, "action": 4227, "made": 4228, " Death": 4229, " End": 4230, " Limited": 4231, " winner": 4232, "entry": 4233, " images": 4234, "point": 4235, "webster": 4236, " Beach": 4237, "parliamentary": 4238, " 57": 4239, "sydney": 4240, " submarines": 4241, " networks": 4242, " notably": 4243, " positive": 4244, " distinction": 4245, " 150": 4246, "fc": 4247, "\"),": 4248, " Adams": 4249, " Antonio": 4250, "pos": 4251, "Alan": 4252, " symbols": 4253, " actions": 4254, " Annual": 4255, " José": 4256, " achieved": 4257, " Are": 4258, " Light": 4259, " carry": 4260, " Airlines": 4261, " 47": 4262, " Election": 4263, "num": 4264, "nchs": 4265, " ruled": 4266, "soccer": 4267, " affected": 4268, " widespread": 4269, " Standard": 4270, " Market": 4271, "Princeton": 4272, " peace": 4273, " wind": 4274, " Jacob": 4275, " differences": 4276, " Each": 4277, " voting": 4278, "topics": 4279, " prices": 4280, " Sunday": 4281, " parks": 4282, "Office": 4283, "It": 4284, " receive": 4285, " libraries": 4286, " offers": 4287, "=''": 4288, " Peninsula": 4289, " Plant": 4290, " adult": 4291, " mythology": 4292, " Telegraph": 4293, " roles": 4294, " covers": 4295, " fiction": 4296, " Up": 4297, " designer": 4298, "Natural": 4299, " sexual": 4300, "increase": 4301, "Argentina": 4302, "Austria": 4303, " royal": 4304, "]]</": 4305, "Liberal": 4306, " entered": 4307, " incorporated": 4308, " debut": 4309, " employed": 4310, " probably": 4311, " planet": 4312, " actually": 4313, " Portugal": 4314, "Roger": 4315, " price": 4316, "but": 4317, " operate": 4318, " dams": 4319, "Swiss": 4320, " Sir": 4321, " completely": 4322, " IV": 4323, " existing": 4324, " subsequent": 4325, " student": 4326, "Chapter": 4327, " element": 4328, " Map": 4329, " mentioned": 4330, " 49": 4331, " hole": 4332, " Lakes": 4333, "tourism": 4334, "USS": 4335, "]]).<": 4336, " watches": 4337, " requires": 4338, " clear": 4339, " advanced": 4340, "Labour": 4341, " Fox": 4342, " shared": 4343, " migration": 4344, "GDP": 4345, "lat": 4346, "Santa": 4347, ".),": 4348, " Industrial": 4349, " closely": 4350, "Parliament": 4351, " Geography": 4352, "<!--[[": 4353, " argued": 4354, " ruling": 4355, " formerly": 4356, " weeks": 4357, " Daniel": 4358, "1965": 4359, " designated": 4360, "opinion": 4361, "serbia": 4362, "EpisodeNumber": 4363, " mental": 4364, " reasons": 4365, " Despite": 4366, " leads": 4367, " episode": 4368, "order": 4369, " Nation": 4370, " Fund": 4371, " 1890": 4372, " Sri": 4373, "kannada": 4374, " vertical": 4375, " bring": 4376, " judge": 4377, "Patrick": 4378, " transition": 4379, "council": 4380, "Miami": 4381, " flags": 4382, " Colchester": 4383, " studied": 4384, " us": 4385, "development": 4386, " Economy": 4387, "speed": 4388, " hundreds": 4389, "Commonwealth": 4390, "sp": 4391, "votes": 4392, "trump": 4393, " Learning": 4394, " Stewart": 4395, "                  ": 4396, "offset": 4397, "sqmi": 4398, " icon": 4399, "Rugby": 4400, "metro": 4401, " electric": 4402, " gives": 4403, "Local": 4404, "vertical": 4405, " Watch": 4406, "rankings": 4407, "movie": 4408, " Samuel": 4409, " pearl": 4410, "referee": 4411, " Because": 4412, "ai": 4413, "musician": 4414, "set": 4415, " competitions": 4416, "Walter": 4417, " Syria": 4418, " computers": 4419, "maps": 4420, " 1952": 4421, "third": 4422, "note": 4423, " continental": 4424, "Museum": 4425, " 67": 4426, " shooting": 4427, "angbr": 4428, " critical": 4429, " Arizona": 4430, " 56": 4431, " offered": 4432, " kick": 4433, "Earth": 4434, "1918": 4435, " disaster": 4436, " hay": 4437, "Derby": 4438, " Boeing": 4439, " selenium": 4440, " arrived": 4441, " discovery": 4442, "Le": 4443, " banking": 4444, "species": 4445, "ˈ": 4446, "Book": 4447, "/%": 4448, "Language": 4449, ")#": 4450, " Queensland": 4451, " notes": 4452, " Physics": 4453, " glass": 4454, "biology": 4455, "item": 4456, " patterns": 4457, " und": 4458, " recognised": 4459, "Stanley": 4460, "worlds": 4461, " leadership": 4462, " moves": 4463, "market": 4464, " Cancer": 4465, "Spain": 4466, " DNA": 4467, " metres": 4468, " tour": 4469, " bombing": 4470, "Philip": 4471, " rich": 4472, " question": 4473, " issued": 4474, " sub": 4475, " monarchy": 4476, " Medieval": 4477, " Hungary": 4478, "PPP": 4479, " defeat": 4480, " sides": 4481, " movements": 4482, " Sulawesi": 4483, " milk": 4484, "this": 4485, " look": 4486, " card": 4487, " Morning": 4488, " selected": 4489, " Q": 4490, " Crown": 4491, "politician": 4492, " earth": 4493, "Ukrainian": 4494, " visit": 4495, "road": 4496, " Transit": 4497, " going": 4498, " memory": 4499, " survey": 4500, " dominated": 4501, " publication": 4502, " my": 4503, " 95": 4504, "Matthew": 4505, "se": 4506, "wiktionary": 4507, "TOC": 4508, " drama": 4509, " Environmental": 4510, "Renaissance": 4511, " percentage": 4512, " Rajasthan": 4513, " follows": 4514, " strategy": 4515, "Elizabeth": 4516, "118": 4517, " rapid": 4518, " Week": 4519, " populous": 4520, "-[[": 4521, " appearance": 4522, "bartable": 4523, "Vincent": 4524, "service": 4525, " Internet": 4526, " Name": 4527, " warfare": 4528, " split": 4529, " passengers": 4530, "Jon": 4531, " Dominican": 4532, " 85": 4533, " alongside": 4534, " dark": 4535, " flat": 4536, "admin": 4537, "nic": 4538, " Argentine": 4539, "latimes": 4540, " freedom": 4541, "ogg": 4542, "Lewis": 4543, " calls": 4544, "bin": 4545, " grown": 4546, " radiation": 4547, "birth": 4548, " yes": 4549, " Patrick": 4550, " store": 4551, "Fox": 4552, " bgcolor": 4553, " Ipswich": 4554, " principles": 4555, " grow": 4556, " parallel": 4557, " My": 4558, " folk": 4559, " decided": 4560, " agreed": 4561, ":'''": 4562, " follow": 4563, "OECD": 4564, " chemical": 4565, " 1943": 4566, " mountains": 4567, "Swedish": 4568, "court": 4569, " Weather": 4570, " Bowl": 4571, " Egyptian": 4572, "Georgia": 4573, "]]]]-->": 4574, "Eleanor": 4575, ".]],": 4576, " 82": 4577, " approved": 4578, " educational": 4579, " Father": 4580, " immigration": 4581, " slightly": 4582, "2520": 4583, "earthquake": 4584, " elm": 4585, " determined": 4586, " extra": 4587, " newly": 4588, " collapse": 4589, "Power": 4590, " senior": 4591, " 78": 4592, "apple": 4593, " constitutional": 4594, "Laura": 4595, "oecd": 4596, " genre": 4597, " 1938": 4598, " representation": 4599, "move": 4600, "merriam": 4601, " normally": 4602, " plane": 4603, "Death": 4604, "where": 4605, "Hong": 4606, " comedy": 4607, " storage": 4608, " Wildlife": 4609, " output": 4610, "One": 4611, "policy": 4612, " suggests": 4613, " Several": 4614, " 1860": 4615, " Night": 4616, " Guinea": 4617, " athlete": 4618, "1954": 4619, " deposits": 4620, ">\"": 4621, " 52": 4622, " electricity": 4623, " Hot": 4624, "Living": 4625, "olympedia": 4626, " paper": 4627, " diseases": 4628, " Such": 4629, "Annual": 4630, " citations": 4631, " 51": 4632, "singer": 4633, " Short": 4634, " collapsible": 4635, " programming": 4636, " markets": 4637, " Do": 4638, " die": 4639, " gets": 4640, " parents": 4641, " sovereign": 4642, " Between": 4643, "building": 4644, " legislature": 4645, "1936": 4646, "distance": 4647, " Turkish": 4648, "Salem": 4649, " Way": 4650, " producing": 4651, " Harris": 4652, "interview": 4653, "'m": 4654, "prime": 4655, " Metro": 4656, "blank": 4657, "elected": 4658, "''':": 4659, " your": 4660, " fight": 4661, "pub": 4662, ":{{": 4663, " decade": 4664, " Out": 4665, " Port": 4666, " piece": 4667, " camp": 4668, " artistic": 4669, "Jacques": 4670, " ending": 4671, "Jewish": 4672, " castles": 4673, " enforcement": 4674, " Archives": 4675, " El": 4676, " novelist": 4677, "Politics": 4678, "nation": 4679, "105": 4680, "Percentage": 4681, " Wiley": 4682, " Future": 4683, " businesses": 4684, "tech": 4685, " Hispanic": 4686, "head": 4687, " met": 4688, " 1851": 4689, "Life": 4690, " flowers": 4691, " fell": 4692, " UEFA": 4693, " Dam": 4694, "clip": 4695, " topics": 4696, " vast": 4697, " initial": 4698, "images": 4699, " equal": 4700, " Etymology": 4701, "Indigenous": 4702, "native": 4703, " 71": 4704, "early": 4705, "Otto": 4706, " recording": 4707, " Front": 4708, " relay": 4709, " Thus": 4710, " ecosystem": 4711, "1177": 4712, " Origins": 4713, " tools": 4714, "member": 4715, "journals": 4716, " crew": 4717, "Boston": 4718, " varies": 4719, "Atlantic": 4720, " Platinum": 4721, " Detroit": 4722, "loss": 4723, "Rotterdam": 4724, " Production": 4725, "We": 4726, " consumption": 4727, "wstitle": 4728, " Wall": 4729, "nominal": 4730, " Singapore": 4731, "died": 4732, " attempts": 4733, " Five": 4734, "making": 4735, " Later": 4736, " massive": 4737, "circa": 4738, " Miami": 4739, " Transportation": 4740, " transit": 4741, " Diocese": 4742, " SARS": 4743, " planned": 4744, " Scientific": 4745, "Czech": 4746, "Hungarian": 4747, "services": 4748, " auto": 4749, " NFL": 4750, "\"|[[": 4751, " showed": 4752, " criminal": 4753, "EU": 4754, "1941": 4755, " republic": 4756, " Record": 4757, "france": 4758, " Tyrol": 4759, ">\\": 4760, " transfer": 4761, "Alex": 4762, " Defense": 4763, " contributed": 4764, "mil": 4765, "1944": 4766, " multi": 4767, " defence": 4768, "Div": 4769, "More": 4770, " Indigenous": 4771, " Mountain": 4772, "sea": 4773, "Film": 4774, " 77": 4775, "airport": 4776, "sr": 4777, "yard": 4778, " Nepal": 4779, " Clark": 4780, "Van": 4781, " costs": 4782, "bloomberg": 4783, " coming": 4784, "1930": 4785, "horse": 4786, "names": 4787, " Profile": 4788, " sixth": 4789, " boundary": 4790, " FIBA": 4791, " candidates": 4792, "use": 4793, " lang": 4794, " join": 4795, "Map": 4796, "Library": 4797, "Luxembourg": 4798, "DwAAQBAJ": 4799, " courses": 4800, "Transport": 4801, " Georgia": 4802, " suggested": 4803, "]]—": 4804, " Control": 4805, " losses": 4806, " consisting": 4807, " Countries": 4808, "aa": 4809, " meat": 4810, "position": 4811, " retired": 4812, " combat": 4813, " increases": 4814, " household": 4815, " formally": 4816, " connection": 4817, "ae": 4818, " Dakota": 4819, "1914": 4820, "oct": 4821, "0001": 4822, "\"[": 4823, "1969": 4824, " Hockey": 4825, "Indonesia": 4826, "central": 4827, " Rail": 4828, " membership": 4829, " Like": 4830, " Golf": 4831, "FIBA": 4832, "colombia": 4833, " fashion": 4834, " agency": 4835, " decisions": 4836, " debate": 4837, " heart": 4838, " details": 4839, "My": 4840, " tower": 4841, " Reports": 4842, "Governor": 4843, " Tribune": 4844, "killed": 4845, " Moon": 4846, " frogs": 4847, " improve": 4848, " technical": 4849, " centers": 4850, " originated": 4851, " managed": 4852, "Space": 4853, "Lithuania": 4854, " 1937": 4855, "bio": 4856, "collection": 4857, " Plan": 4858, " hot": 4859, " feet": 4860, "Raymond": 4861, "romania": 4862, " prison": 4863, " Benjamin": 4864, "%.<": 4865, " limits": 4866, " Children": 4867, " x": 4868, " Newman": 4869, " devices": 4870, " involving": 4871, " holding": 4872, " variant": 4873, "Asia": 4874, " Video": 4875, " agencies": 4876, " wars": 4877, " tropical": 4878, "Ethnic": 4879, " Cali": 4880, " goes": 4881, "love": 4882, " successor": 4883, " corps": 4884, "Senate": 4885, " brain": 4886, " components": 4887, "II": 4888, ">)": 4889, " acting": 4890, " acts": 4891, "chart": 4892, "Health": 4893, " Greater": 4894, "Korean": 4895, " Belgium": 4896, "usatoday": 4897, "Mars": 4898, " external": 4899, "il": 4900, " hard": 4901, " attention": 4902, "reviews": 4903, " influential": 4904, " 62": 4905, " Archive": 4906, " gradually": 4907, "Persian": 4908, "back": 4909, "1890": 4910, " statistical": 4911, "my": 4912, " strikes": 4913, "Location": 4914, "jazz": 4915, "107": 4916, "light": 4917, "1910": 4918, " Her": 4919, " personnel": 4920, " emergency": 4921, " 1936": 4922, "af": 4923, " ranking": 4924, " Works": 4925, " Senior": 4926, "district": 4927, " Lebanon": 4928, " avoid": 4929, " believe": 4930, " Register": 4931, " curriculum": 4932, "highest": 4933, " fighting": 4934, "Urban": 4935, "bus": 4936, " subsequently": 4937, " Hills": 4938, " extreme": 4939, "tax": 4940, " miles": 4941, " Yorkshire": 4942, "mn": 4943, "'':": 4944, "future": 4945, "1961": 4946, " protected": 4947, " minor": 4948, " wealth": 4949, ")]": 4950, " mainland": 4951, " 1910": 4952, " inspired": 4953, "|/": 4954, " stress": 4955, "1927": 4956, "Ray": 4957, "Matt": 4958, "cbignore": 4959, " sciences": 4960, "Sarah": 4961, " Reserve": 4962, " 63": 4963, " downtown": 4964, "Norway": 4965, "sh": 4966, " concepts": 4967, " meant": 4968, " labor": 4969, "Current": 4970, "1017": 4971, "crisis": 4972, " Argentina": 4973, " carrying": 4974, " waves": 4975, " VI": 4976, "bayern": 4977, " machines": 4978, " categories": 4979, "Jordan": 4980, " something": 4981, "Davies": 4982, "npr": 4983, "Williams": 4984, "Tim": 4985, " Lady": 4986, " classes": 4987, "Danish": 4988, " utc": 4989, " Communist": 4990, "Cities": 4991, "Switzerland": 4992, " twice": 4993, "common": 4994, " legislation": 4995, "income": 4996, "Energy": 4997, " Moscow": 4998, " pollution": 4999, "er": 5000, "re": 5001, " th": 5002, "le": 5003, "ic": 5004, " o": 5005, "ur": 5006, "ion": 5007, "iv": 5008, "om": 5009, "ht": 5010, "ate": 5011, " t": 5012, "ing": 5013, " f": 5014, " b": 5015, "ive": 5016, "am": 5017, "eb": 5018, "ol": 5019, "ent": 5020, "tp": 5021, "//": 5022, "ww": 5023, "arch": 5024, "ation": 5025, " n": 5026, " h": 5027, "ite": 5028, "ig": 5029, "ag": 5030, "ct": 5031, "ist": 5032, "ul": 5033, "ad": 5034, "ess": 5035, "im": 5036, "ers": 5037, "itle": 5038, "um": 5039, "ut": 5040, "ew": 5041, "oo": 5042, "op": 5043, "ub": 5044, "ish": 5045, "ber": 5046, "ia": 5047, "ov": 5048, "ce": 5049, "ow": 5050, "ra": 5051, "ian": 5052, "ay": 5053, "ot": 5054, "cess": 5055, "ame": 5056, "irst": 5057, "oc": 5058, "ity": 5059, " g": 5060, "ary": 5061, "os": 5062, " 201": 5063, "ter": 5064, " st": 5065, "res": 5066, "ang": 5067, "ies": 5068, "ubl": 5069, "201": 5070, "ap": 5071, "ith": 5072, "ly": 5073, "oun": 5074, "est": 5075, " 202": 5076, "ort": 5077, "ews": 5078, "ab": 5079, "ip": 5080, "ug": 5081, "if": 5082, "og": 5083, "ust": 5084, "ook": 5085, "202": 5086, "ear": 5087, "av": 5088, "ory": 5089, " wh": 5090, "ember": 5091, "publ": 5092, "ain": 5093, "rom": 5094, " con": 5095, "ine": 5096, "ak": 5097, "ment": 5098, "mer": 5099, "ern": 5100, "ep": 5101, "ard": 5102, "qu": 5103, "isher": 5104, "uth": 5105, "ran": 5106, "ver": 5107, "ri": 5108, "ill": 5109, "ore": 5110, "ord": 5111, "ich": 5112, "od": 5113, "ure": 5114, "ere": 5115, "\n\n": 5116, "ial": 5117, "ast": 5118, "ld": 5119, "ile": 5120, "ud": 5121, "ork": 5122, "ican": 5123, " com": 5124, "ight": 5125, "ther": 5126, "ical": 5127, "ry": 5128, " r": 5129, " Ch": 5130, "te": 5131, "ts": 5132, "ue": 5133, "uary": 5134, "cl": 5135, "ph": 5136, "nal": 5137, "uc": 5138, "ost": 5139, "ction": 5140, "orld": 5141, "ong": 5142, "iss": 5143, "ens": 5144, "ous": 5145, "ount": 5146, "ge": 5147, "ational": 5148, "angu": 5149, " ex": 5150, "ign": 5151, "und": 5152, " Un": 5153, "ates": 5154, "man": 5155, "ated": 5156, "ult": 5157, "pr": 5158, "ournal": 5159, "ant": 5160, "ack": 5161, "iz": 5162, "ire": 5163, "ence": 5164, "anguage": 5165, "ell": 5166, "orn": 5167, "ass": 5168, "port": 5169, "ric": 5170, "ition": 5171, "con": 5172, "ress": 5173, " ch": 5174, "merican": 5175, "ally": 5176, "lay": 5177, "olog": 5178, " le": 5179, " j": 5180, "ey": 5181, "ober": 5182, "ik": 5183, "ect": 5184, "rit": 5185, "ob": 5186, "ice": 5187, "ited": 5188, "ide": 5189, "ivers": 5190, "uthor": 5191, "ics": 5192, "act": 5193, "ex": 5194, "ations": 5195, "ng": 5196, "so": 5197, "ages": 5198, "ond": 5199, "ree": 5200, "ath": 5201, "ev": 5202, "ese": 5203, "Ch": 5204, "ib": 5205, "ren": 5206, "ark": 5207, "ral": 5208, "ach": 5209, "ci": 5210, "ind": 5211, "own": 5212, "umb": 5213, "ace": 5214, " k": 5215, " se": 5216, "ater": 5217, " sp": 5218, "ave": 5219, "az": 5220, "enc": 5221, "ime": 5222, "ball": 5223, "ope": 5224, "une": 5225, "istory": 5226, " Th": 5227, "ctober": 5228, "anuary": 5229, "tion": 5230, " sh": 5231, "les": 5232, "ound": 5233, "ateg": 5234, "uly": 5235, " un": 5236, "erv": 5237, "oot": 5238, " im": 5239, "artic": 5240, "ome": 5241, "uch": 5242, "lin": 5243, " comp": 5244, "igh": 5245, "led": 5246, "cent": 5247, "pril": 5248, "amp": 5249, "iversity": 5250, "ail": 5251, "opul": 5252, "ugust": 5253, "ecember": 5254, "ugh": 5255, "lish": 5256, "able": 5257, "ept": 5258, "bn": 5259, " cont": 5260, "io": 5261, "outh": 5262, "ions": 5263, "iet": 5264, "ance": 5265, "ood": 5266, "ss": 5267, " ac": 5268, "ities": 5269, "eop": 5270, "ann": 5271, "olit": 5272, "ebr": 5273, "ton": 5274, "vol": 5275, "eg": 5276, "ents": 5277, "ategory": 5278, "ovember": 5279, "aw": 5280, "ef": 5281, "eptember": 5282, "ah": 5283, "ology": 5284, "tern": 5285, "ans": 5286, "ener": 5287, "vel": 5288, "ele": 5289, "any": 5290, "ebruary": 5291, "nb": 5292, "oh": 5293, "ms": 5294, "orth": 5295, " cl": 5296, "ash": 5297, "imes": 5298, "Un": 5299, "eople": 5300, "ootball": 5301, "yle": 5302, "ism": 5303, "arg": 5304, "als": 5305, "mall": 5306, "ade": 5307, "ne": 5308, "ild": 5309, "ron": 5310, " ad": 5311, " Ar": 5312, "urope": 5313, "ume": 5314, "ins": 5315, " incl": 5316, "ee": 5317, "raph": 5318, "ident": 5319, "mon": 5320, "yp": 5321, "199": 5322, "ick": 5323, "ase": 5324, "ors": 5325, "ative": 5326, "ina": 5327, "gle": 5328, "ings": 5329, " ro": 5330, "ury": 5331, "eld": 5332, "oll": 5333, "yst": 5334, " ele": 5335, "overn": 5336, "ames": 5337, " pl": 5338, "pro": 5339, "ustral": 5340, " count": 5341, "oy": 5342, "way": 5343, "du": 5344, "cord": 5345, " popul": 5346, "oogle": 5347, " ab": 5348, "li": 5349, "rist": 5350, " Eng": 5351, "aj": 5352, "ks": 5353, "ution": 5354, "anc": 5355, "fter": 5356, " me": 5357, " Com": 5358, "sc": 5359, "lag": 5360, "ool": 5361, "ific": 5362, "rad": 5363, "uring": 5364, "ert": 5365, "ons": 5366, "usic": 5367, "enn": 5368, "erman": 5369, " Ind": 5370, "ystem": 5371, "ica": 5372, "fer": 5373, " res": 5374, " reg": 5375, "stit": 5376, "ox": 5377, "ou": 5378, "ata": 5379, "ural": 5380, "ok": 5381, "ograph": 5382, "form": 5383, "ake": 5384, "ram": 5385, "ternational": 5386, " dis": 5387, "ys": 5388, "ual": 5389, "rib": 5390, " Sh": 5391, "ym": 5392, "itor": 5393, "emb": 5394, "att": 5395, "rans": 5396, " ag": 5397, "edia": 5398, "ower": 5399, " te": 5400, "ilm": 5401, " 199": 5402, " pr": 5403, "wo": 5404, " rel": 5405, " ar": 5406, "ision": 5407, "reat": 5408, " sc": 5409, "xt": 5410, "uss": 5411, "ars": 5412, "ery": 5413, "ature": 5414, "ten": 5415, " ra": 5416, "anad": 5417, "ince": 5418, "urn": 5419, "ank": 5420, "oman": 5421, "ale": 5422, "ces": 5423, "ky": 5424, "duc": 5425, "son": 5426, "ict": 5427, "ohn": 5428, "eal": 5429, "ode": 5430, "chool": 5431, "inn": 5432, "fl": 5433, "istor": 5434, "sf": 5435, "overnment": 5436, "rip": 5437, " ter": 5438, "uld": 5439, "yn": 5440, "reg": 5441, "mun": 5442, "Ar": 5443, "Sh": 5444, "ied": 5445, "oth": 5446, "wn": 5447, "ier": 5448, " Con": 5449, "ket": 5450, " publ": 5451, "dis": 5452, " ne": 5453, "ensus": 5454, "ered": 5455, "resident": 5456, "ris": 5457, "umber": 5458, "ship": 5459, "ased": 5460, "ax": 5461, "ony": 5462, " includ": 5463, "ix": 5464, "under": 5465, " bet": 5466, "rop": 5467, "ween": 5468, "bb": 5469, " Z": 5470, "198": 5471, "ward": 5472, "roup": 5473, " kn": 5474, "arn": 5475, "ouse": 5476, " app": 5477, "ays": 5478, "vent": 5479, "ures": 5480, "ield": 5481, "arly": 5482, " Pro": 5483, "ement": 5484, " cons": 5485, "atch": 5486, "inal": 5487, "ium": 5488, "ife": 5489, " ref": 5490, "ley": 5491, "ose": 5492, "cre": 5493, "lo": 5494, "olic": 5495, "ve": 5496, "oss": 5497, " Austral": 5498, "ional": 5499, "ital": 5500, " loc": 5501, " Brit": 5502, "ett": 5503, "iver": 5504, "ject": 5505, "sy": 5506, " spec": 5507, " Sp": 5508, "amb": 5509, "ote": 5510, "Th": 5511, "rough": 5512, "vert": 5513, "uman": 5514, "ock": 5515, "rat": 5516, "hil": 5517, "oci": 5518, " 198": 5519, " cap": 5520, "ives": 5521, " Re": 5522, "mp": 5523, " Col": 5524, "itation": 5525, "ise": 5526, "pend": 5527, " dist": 5528, " polit": 5529, "ious": 5530, "resent": 5531, "let": 5532, "conom": 5533, "arty": 5534, "ries": 5535, "velop": 5536, "wh": 5537, "ency": 5538, "cience": 5539, "ange": 5540, "na": 5541, "eries": 5542, "har": 5543, "amil": 5544, "ians": 5545, " tra": 5546, "ough": 5547, " est": 5548, " Count": 5549, "apan": 5550, "econd": 5551, "ude": 5552, "ason": 5553, " ind": 5554, "ists": 5555, "ford": 5556, "imate": 5557, "iness": 5558, "urch": 5559, "erson": 5560, "ounc": 5561, "dex": 5562, "eneral": 5563, " em": 5564, "pap": 5565, "leg": 5566, "ines": 5567, "chn": 5568, " serv": 5569, "me": 5570, "erb": 5571, "ulture": 5572, "cient": 5573, "lob": 5574, " bec": 5575, "ondon": 5576, "ink": 5577, "ajor": 5578, "ets": 5579, "ating": 5580, "por": 5581, "lands": 5582, " Le": 5583, "ott": 5584, "eral": 5585, "BC": 5586, "BA": 5587, "usiness": 5588, "ctions": 5589, "illion": 5590, "cip": 5591, "ps": 5592, "ences": 5593, "ania": 5594, "ike": 5595, "iction": 5596, "ke": 5597, "ground": 5598, "nam": 5599, "ven": 5600, " att": 5601, "mid": 5602, "ales": 5603, "iam": 5604, "han": 5605, " larg": 5606, " Canad": 5607, " def": 5608, " qu": 5609, " bu": 5610, "ute": 5611, " inter": 5612, "irect": 5613, " ass": 5614, "cy": 5615, "rict": 5616, "ever": 5617, "der": 5618, "ration": 5619, "uz": 5620, " Cal": 5621, "ij": 5622, "ould": 5623, " Wh": 5624, " Cent": 5625, " sur": 5626, "ze": 5627, " prov": 5628, "thony": 5629, " am": 5630, "ilit": 5631, "omen": 5632, "ments": 5633, "tal": 5634, " cal": 5635, "ipp": 5636, "bl": 5637, "odern": 5638, "rench": 5639, "dom": 5640, "ague": 5641, " Pol": 5642, " stud": 5643, "itt": 5644, "stru": 5645, "ible": 5646, " sup": 5647, "erg": 5648, "ival": 5649, " Or": 5650, "ports": 5651, "uation": 5652, " var": 5653, "ross": 5654, "med": 5655, "ament": 5656, "iety": 5657, "pen": 5658, "agaz": 5659, "ices": 5660, "ove": 5661, " sing": 5662, "lor": 5663, " ph": 5664, "gu": 5665, "ility": 5666, "play": 5667, "ization": 5668, " dif": 5669, "ister": 5670, "ocial": 5671, "cont": 5672, "ban": 5673, "istics": 5674, "ret": 5675, "ackground": 5676, " Gu": 5677, "useum": 5678, "count": 5679, "ington": 5680, " min": 5681, "ather": 5682, "arli": 5683, "ollow": 5684, " fl": 5685, "oph": 5686, "Con": 5687, "vir": 5688, "ype": 5689, "ung": 5690, "lect": 5691, "urg": 5692, "agazine": 5693, "ually": 5694, " exp": 5695, "rol": 5696, "ablish": 5697, "fore": 5698, "Wh": 5699, "arm": 5700, " po": 5701, "ull": 5702, "yd": 5703, "arth": 5704, "acy": 5705, " ent": 5706, "icial": 5707, "reen": 5708, "ize": 5709, "apter": 5710, " int": 5711, "ple": 5712, "orm": 5713, "Re": 5714, "estern": 5715, "depend": 5716, "lobal": 5717, "ological": 5718, "ician": 5719, "!--": 5720, "uts": 5721, "alth": 5722, " bas": 5723, "tail": 5724, "iles": 5725, "ized": 5726, "aking": 5727, "obert": 5728, " Pl": 5729, "ney": 5730, "iew": 5731, " Cl": 5732, "organ": 5733, "ues": 5734, "icon": 5735, "duction": 5736, " Ex": 5737, "ography": 5738, "iod": 5739, "cture": 5740, "ny": 5741, "ilitary": 5742, "ouncil": 5743, "ext": 5744, "val": 5745, " Ass": 5746, "Sp": 5747, "rent": 5748, "ely": 5749, "Pro": 5750, "ically": 5751, "erry": 5752, "radition": 5753, "arl": 5754, "arge": 5755, "akes": 5756, "paper": 5757, "Ind": 5758, " fe": 5759, "rew": 5760, "idge": 5761, " En": 5762, "iforn": 5763, "rian": 5764, " mon": 5765, "ular": 5766, "bum": 5767, "que": 5768, "Com": 5769, "ught": 5770, "ants": 5771, "ator": 5772, "mar": 5773, " beg": 5774, "ived": 5775, "fess": 5776, " desc": 5777, "clop": 5778, "bour": 5779, "ifornia": 5780, "dition": 5781, " establish": 5782, "ambig": 5783, "bs": 5784, "Col": 5785, " differ": 5786, "lack": 5787, "ham": 5788, "FA": 5789, "iter": 5790, " trans": 5791, "oron": 5792, "ambiguation": 5793, " Ad": 5794, "ling": 5795, "sk": 5796, "ones": 5797, "iven": 5798, "ights": 5799, " orig": 5800, "elf": 5801, "ird": 5802, "ined": 5803, "come": 5804, "lege": 5805, "duct": 5806, "iving": 5807, "gram": 5808, "lex": 5809, " ext": 5810, "rand": 5811, "IS": 5812, "rest": 5813, "ved": 5814, "ana": 5815, "rel": 5816, "ories": 5817, "Ge": 5818, "brary": 5819, "els": 5820, "ality": 5821, "ourt": 5822, "esp": 5823, "rin": 5824, " sever": 5825, "uck": 5826, "ases": 5827, "ats": 5828, "ivil": 5829, "ission": 5830, "ially": 5831, "rish": 5832, "ietnam": 5833, "stitution": 5834, " tr": 5835, " elect": 5836, " Fran": 5837, "ior": 5838, "istan": 5839, "ocrat": 5840, "reek": 5841, " mov": 5842, "era": 5843, "oard": 5844, "illiam": 5845, "20210": 5846, "ty": 5847, " Sc": 5848, " rep": 5849, "rain": 5850, "ha": 5851, " Amer": 5852, "ucky": 5853, "avid": 5854, "omin": 5855, "ux": 5856, " dec": 5857, "vg": 5858, " Publ": 5859, " writ": 5860, "exas": 5861, "anish": 5862, "ardian": 5863, " Be": 5864, " occ": 5865, "ida": 5866, "ole": 5867, "yl": 5868, " med": 5869, "inter": 5870, "entucky": 5871, " Se": 5872, "ffect": 5873, "ane": 5874, " Min": 5875, " char": 5876, "ste": 5877, "gin": 5878, "formation": 5879, "dle": 5880, "ultural": 5881, "viron": 5882, " incre": 5883, "harv": 5884, "ociety": 5885, "ago": 5886, " leg": 5887, "ampion": 5888, "idth": 5889, " Ac": 5890, "ause": 5891, "ara": 5892, "amily": 5893, "ene": 5894, "ster": 5895, " Ag": 5896, "rum": 5897, "aces": 5898, "vers": 5899, "ociation": 5900, "ont": 5901, " Rev": 5902, " commun": 5903, " Comp": 5904, "ush": 5905, "Jos": 5906, "owever": 5907, " econom": 5908, "rown": 5909, "oe": 5910, " vol": 5911, "vest": 5912, "ani": 5913, "vil": 5914, "clopedia": 5915, "ransport": 5916, "eter": 5917, " contin": 5918, "En": 5919, " ann": 5920, "bor": 5921, "acter": 5922, "atin": 5923, "tain": 5924, "vision": 5925, "irth": 5926, "times": 5927, "Eng": 5928, "ler": 5929, "20230": 5930, "ads": 5931, "orpor": 5932, " Af": 5933, "bel": 5934, " cre": 5935, "sych": 5936, " Russ": 5937, "omb": 5938, "And": 5939, "igion": 5940, "raz": 5941, "hip": 5942, "comp": 5943, "ertain": 5944, " histor": 5945, "inf": 5946, " Sw": 5947, " iss": 5948, "aul": 5949, "Ref": 5950, " produc": 5951, "vironment": 5952, "inese": 5953, "ketball": 5954, " resp": 5955, "unt": 5956, "arliament": 5957, " bel": 5958, "aut": 5959, "ois": 5960, " oper": 5961, "ards": 5962, "ves": 5963, "ites": 5964, "ald": 5965, "ample": 5966, " organ": 5967, "ama": 5968, "Web": 5969, "BAJ": 5970, "och": 5971, "uff": 5972, "ering": 5973, "ictionary": 5974, " Miss": 5975, "acts": 5976, " partic": 5977, "ls": 5978, "astern": 5979, "til": 5980, "owa": 5981, "embers": 5982, "istrict": 5983, " Rep": 5984, "ael": 5985, "Pol": 5986, "atural": 5987, "Ad": 5988, "minist": 5989, "ots": 5990, "eph": 5991, "ised": 5992, " str": 5993, "ows": 5994, "atholic": 5995, "fe": 5996, "ghan": 5997, "ria": 5998, "opulation": 5999, "ck": 6000, "ble": 6001, "ginia": 6002, " sim": 6003, "aint": 6004, "onom": 6005, "aus": 6006, "test": 6007, " cur": 6008, "uan": 6009, "thod": 6010, "cap": 6011, "ura": 6012, "polit": 6013, "oday": 6014, "unn": 6015, "ucation": 6016, "ti": 6017, "rime": 6018, "ma": 6019, " gener": 6020, " Te": 6021, " ev": 6022, "cept": 6023, " rele": 6024, " typ": 6025, "Christ": 6026, "lam": 6027, " eng": 6028, " Reg": 6029, "mit": 6030, "ified": 6031, "ublin": 6032, "azz": 6033, " stat": 6034, "cording": 6035, "Is": 6036, "bi": 6037, " Ge": 6038, "ources": 6039, "ription": 6040, "aff": 6041, "ova": 6042, "ief": 6043, "wik": 6044, "rael": 6045, "dependent": 6046, " consid": 6047, "Ex": 6048, "ray": 6049, "Cl": 6050, " tem": 6051, "ource": 6052, "ired": 6053, "side": 6054, " import": 6055, " profess": 6056, "bol": 6057, "tra": 6058, "ka": 6059, "mark": 6060, " dem": 6061, "ta": 6062, "ogn": 6063, "QBAJ": 6064, "ands": 6065, "ful": 6066, "icago": 6067, "ashington": 6068, "xford": 6069, "ricket": 6070, "Or": 6071, " indust": 6072, " Ital": 6073, "Har": 6074, "!}}": 6075, "ilt": 6076, "icip": 6077, "yth": 6078, "ampionship": 6079, "NA": 6080, " sett": 6081, "alk": 6082, "eur": 6083, "ification": 6084, "read": 6085, "ih": 6086, "rica": 6087, "ico": 6088, "chnology": 6089, "Sc": 6090, "ring": 6091, "ota": 6092, "ense": 6093, "osition": 6094, "ides": 6095, "mission": 6096, "aster": 6097, "itz": 6098, "field": 6099, "sur": 6100, "cle": 6101, "ished": 6102, "ims": 6103, "berg": 6104, "emocrat": 6105, " ret": 6106, "ester": 6107, "shire": 6108, " arch": 6109, "razil": 6110, "anguages": 6111, "elevision": 6112, "reet": 6113, "app": 6114, "ersey": 6115, " Li": 6116, "met": 6117, "flu": 6118, "ichard": 6119, "ena": 6120, "ption": 6121, " pol": 6122, "reland": 6123, "uters": 6124, " dr": 6125, "ealand": 6126, "urther": 6127, "gy": 6128, "lection": 6129, "Austral": 6130, "uki": 6131, "stitute": 6132, "ily": 6133, "illa": 6134, "ealth": 6135, "reed": 6136, " Dep": 6137, "ek": 6138, "bridge": 6139, "igious": 6140, "Mich": 6141, "ll": 6142, "olf": 6143, "irginia": 6144, "uccess": 6145, "allas": 6146, "adium": 6147, "burg": 6148, "irus": 6149, "ison": 6150, "omet": 6151, "ental": 6152, "sw": 6153, "rial": 6154, "eder": 6155, "bourne": 6156, "IN": 6157, "esearch": 6158, "lock": 6159, "ination": 6160, "ES": 6161, "ouri": 6162, " Off": 6163, "ennis": 6164, "aid": 6165, "uel": 6166, "ults": 6167, "ederal": 6168, " rec": 6169, "ody": 6170, "ared": 6171, "eh": 6172, " appro": 6173, "attle": 6174, "otor": 6175, "ams": 6176, " bl": 6177, " equ": 6178, "mic": 6179, "arles": 6180, " disc": 6181, " Med": 6182, "20220": 6183, "Fran": 6184, "elbourne": 6185, "erbia": 6186, "cipitation": 6187, "Cent": 6188, "ius": 6189, "lymp": 6190, "mpire": 6191, " Mich": 6192, "raft": 6193, "utch": 6194, "lorida": 6195, "orge": 6196, "amer": 6197, "aily": 6198, "ya": 6199, "oronto": 6200, "itch": 6201, " Ne": 6202, "atic": 6203, "gen": 6204, "oon": 6205, "Cal": 6206, "arian": 6207, "uzuki": 6208, "wards": 6209, "ander": 6210, "aries": 6211, "aced": 6212, "DP": 6213, "iddle": 6214, "rim": 6215, "oint": 6216, "BN": 6217, "ville": 6218, "ules": 6219, "utsal": 6220, " Mc": 6221, "frican": 6222, "though": 6223, "igan": 6224, " requ": 6225, "pe": 6226, "pol": 6227, "reak": 6228, " Nor": 6229, "ient": 6230, "aving": 6231, " Ph": 6232, "illed": 6233, "ided": 6234, "thers": 6235, "cer": 6236, "Se": 6237, " val": 6238, "ocr": 6239, "ideo": 6240, "unicip": 6241, "atter": 6242, "ured": 6243, "evel": 6244, "lav": 6245, "urs": 6246, "ner": 6247, "mas": 6248, "atures": 6249, "ills": 6250, "ouis": 6251, "uter": 6252, "cal": 6253, "ness": 6254, "ule": 6255, " Car": 6256, " Stat": 6257, "ument": 6258, "men": 6259, " Sch": 6260, " fin": 6261, "artment": 6262, "her": 6263, "olution": 6264, "hai": 6265, "can": 6266, "regon": 6267, "isl": 6268, "cast": 6269, "ishing": 6270, "ctor": 6271, "atar": 6272, "cis": 6273, "pis": 6274, "eck": 6275, " Stud": 6276, " Res": 6277, "omas": 6278, "struction": 6279, "osoph": 6280, "hd": 6281, " lin": 6282, " ob": 6283, "mov": 6284, "lv": 6285, "ours": 6286, "Ab": 6287, "ultip": 6288, " gu": 6289, "20240": 6290, "mig": 6291, "ploy": 6292, "tt": 6293, "ugby": 6294, "adon": 6295, "ifican": 6296, "wood": 6297, "ibcode": 6298, "ydney": 6299, " fore": 6300, "ictor": 6301, "CO": 6302, "etwork": 6303, "vis": 6304, "rant": 6305, "Am": 6306, " Phil": 6307, "Ed": 6308, " par": 6309, "ghanistan": 6310, "raw": 6311, "ications": 6312, "ender": 6313, "Phil": 6314, " vis": 6315, " Arch": 6316, "ppl": 6317, "llin": 6318, "ummer": 6319, "guardian": 6320, " Bar": 6321, "las": 6322, " activ": 6323, " Tra": 6324, " Mon": 6325, "vey": 6326, "ambridge": 6327, "olicy": 6328, "rab": 6329, "des": 6330, " territ": 6331, "ribut": 6332, "face": 6333, " Br": 6334, " gen": 6335, "istic": 6336, "cean": 6337, " prom": 6338, "AR": 6339, "rem": 6340, "amed": 6341, "ape": 6342, "sch": 6343, " Per": 6344, "ways": 6345, "ino": 6346, "evelop": 6347, " exper": 6348, " Econom": 6349, "ensive": 6350, "llinois": 6351, " Am": 6352, " Har": 6353, "acific": 6354, "Brit": 6355, "reece": 6356, "volution": 6357, "ancer": 6358, "ger": 6359, "adonna": 6360, "adi": 6361, " Bel": 6362, "anghai": 6363, "ract": 6364, "ilk": 6365, "inc": 6366, " sk": 6367, "pect": 6368, "oyal": 6369, "olk": 6370, " compet": 6371, "ront": 6372, " Qu": 6373, " Ab": 6374, " significan": 6375, "mith": 6376, "ining": 6377, " hum": 6378, "itable": 6379, "Be": 6380, "alls": 6381, "ula": 6382, "hio": 6383, "chan": 6384, " opp": 6385, "20110": 6386, "thnic": 6387, "mc": 6388, "gest": 6389, "Man": 6390, "ustice": 6391, "ishop": 6392, "cus": 6393, "ocracy": 6394, " anim": 6395, "Ph": 6396, "ias": 6397, "alf": 6398, " Ang": 6399, "inger": 6400, "ledge": 6401, "ountain": 6402, "AAQBAJ": 6403, "unch": 6404, "urk": 6405, "oviet": 6406, " influ": 6407, "down": 6408, "ita": 6409, " pat": 6410, " z": 6411, "idence": 6412, "ued": 6413, "emocratic": 6414, "ini": 6415, "odes": 6416, "ivid": 6417, "inning": 6418, " Olymp": 6419, " stru": 6420, "Sw": 6421, " manag": 6422, "olar": 6423, "stitut": 6424, "rid": 6425, "20130": 6426, "ultiple": 6427, "AC": 6428, "fin": 6429, " Rel": 6430, "vo": 6431, "even": 6432, "ona": 6433, "den": 6434, " pract": 6435, "ternal": 6436, " offic": 6437, "board": 6438, "elp": 6439, " prim": 6440, "aur": 6441, " expl": 6442, " bro": 6443, "par": 6444, "avy": 6445, "iana": 6446, "sylv": 6447, "stand": 6448, "ended": 6449, " sch": 6450, "Russ": 6451, " Par": 6452, "ennsylv": 6453, "20170": 6454, " Rec": 6455, "ranch": 6456, " cr": 6457, "aterial": 6458, "hest": 6459, "istry": 6460, "20160": 6461, " stand": 6462, "ari": 6463, " rece": 6464, "ication": 6465, "elect": 6466, "dest": 6467, " Val": 6468, " Aust": 6469, " Bl": 6470, " Histor": 6471, " ident": 6472, "gar": 6473, "gs": 6474, "ducation": 6475, "ecut": 6476, " caus": 6477, "cu": 6478, "evelopment": 6479, "osp": 6480, "lant": 6481, "pre": 6482, " \t": 6483, "va": 6484, "itage": 6485, "erences": 6486, " lim": 6487, "Gu": 6488, " describ": 6489, "ellig": 6490, " poss": 6491, " prote": 6492, "20180": 6493, "Bar": 6494, "ential": 6495, "ced": 6496, "ried": 6497, " mar": 6498, "bert": 6499, "ires": 6500, "anda": 6501, "ennsylvania": 6502, "lain": 6503, "EC": 6504, "oz": 6505, "stein": 6506, "He": 6507, " pres": 6508, "chester": 6509, "lear": 6510, "kes": 6511, "gan": 6512, "Ne": 6513, "ki": 6514, "verage": 6515, "eak": 6516, "PG": 6517, "arter": 6518, "igital": 6519, "annica": 6520, " Hol": 6521, " cor": 6522, " fun": 6523, " Sup": 6524, "dam": 6525, "Qu": 6526, "ada": 6527, "Im": 6528, "Inf": 6529, "ference": 6530, "therlands": 6531, " cla": 6532, " comm": 6533, "vention": 6534, "indu": 6535, "angel": 6536, "ift": 6537, "Nor": 6538, "gary": 6539, "OR": 6540, " li": 6541, "itive": 6542, "ilar": 6543, "ify": 6544, "ER": 6545, "stor": 6546, "tw": 6547, "otes": 6548, "Sch": 6549, "pisode": 6550, "less": 6551, "econom": 6552, " phys": 6553, "Car": 6554, "ongress": 6555, "ivate": 6556, "writ": 6557, "SA": 6558, "ervice": 6559, "eek": 6560, "rey": 6561, "IC": 6562, "20150": 6563, "adio": 6564, "cul": 6565, "eball": 6566, "acing": 6567, "raine": 6568, "reme": 6569, "Canad": 6570, "ockey": 6571, "orse": 6572, "lc": 6573, "lement": 6574, "otland": 6575, "olitan": 6576, " Bas": 6577, " Cor": 6578, "ears": 6579, "Co": 6580, "car": 6581, " Ro": 6582, "ymp": 6583, " comb": 6584, "ighest": 6585, "ociated": 6586, "Li": 6587, "hold": 6588, "uments": 6589, "Mc": 6590, " adv": 6591, "issipp": 6592, " aut": 6593, "ymbol": 6594, "AT": 6595, "esota": 6596, "duced": 6597, "ream": 6598, "cyclopedia": 6599, " chang": 6600, "anies": 6601, "ability": 6602, "osed": 6603, "inary": 6604, "ored": 6605, "rea": 6606, "IFA": 6607, "ST": 6608, " beh": 6609, "ither": 6610, " becom": 6611, "Count": 6612, "jects": 6613, "ances": 6614, "tro": 6615, " intro": 6616, "atre": 6617, "estival": 6618, " el": 6619, "ugu": 6620, "quent": 6621, " Pri": 6622, " Met": 6623, "epar": 6624, "AAJ": 6625, "str": 6626, " univers": 6627, "ising": 6628, "uania": 6629, "ijing": 6630, "iat": 6631, "itecture": 6632, "uild": 6633, "ecret": 6634, "atri": 6635, "ingu": 6636, "gress": 6637, "ithuania": 6638, "ili": 6639, "20140": 6640, " temper": 6641, "olid": 6642, "ureau": 6643, "lim": 6644, "iol": 6645, "riev": 6646, "apt": 6647, "Ass": 6648, " individ": 6649, "mond": 6650, "itions": 6651, "ademy": 6652, " govern": 6653, "ership": 6654, "brit": 6655, "rative": 6656, "ometimes": 6657, "ii": 6658, " Em": 6659, "Arch": 6660, "embly": 6661, "Per": 6662, "icle": 6663, "wa": 6664, "za": 6665, " inst": 6666, "ysis": 6667, "iff": 6668, " Ret": 6669, "ala": 6670, "ufact": 6671, "ript": 6672, "bas": 6673, "publican": 6674, "ilms": 6675, " techn": 6676, "dy": 6677, "eed": 6678, " appl": 6679, " Commun": 6680, "umm": 6681, "pan": 6682, " ge": 6683, "issippi": 6684, "govern": 6685, " acc": 6686, " syn": 6687, "Pl": 6688, "ropolitan": 6689, "oods": 6690, "etic": 6691, "ographic": 6692, "dem": 6693, "iled": 6694, "well": 6695, "emat": 6696, "ette": 6697, " invol": 6698, "ecur": 6699, "EN": 6700, " Mex": 6701, " administ": 6702, "innesota": 6703, "risis": 6704, "elligence": 6705, " imp": 6706, "ique": 6707, "ought": 6708, "evin": 6709, "uxemb": 6710, "elebr": 6711, "ids": 6712, " inf": 6713, "ato": 6714, "cons": 6715, "enced": 6716, "rag": 6717, "unicipal": 6718, "oung": 6719, "ilver": 6720, "ali": 6721, "ancial": 6722, "ado": 6723, "ds": 6724, "ceed": 6725, "Min": 6726, "ovel": 6727, "cientific": 6728, "esis": 6729, "oldova": 6730, " recogn": 6731, " conf": 6732, "rap": 6733, "ourg": 6734, "tract": 6735, " Im": 6736, "ider": 6737, "box": 6738, "papers": 6739, " sw": 6740, "refer": 6741, "ints": 6742, "ffic": 6743, "umer": 6744, "ecial": 6745, " inc": 6746, "illing": 6747, "erland": 6748, " Pal": 6749, "Te": 6750, "lov": 6751, " Ed": 6752, "atives": 6753, " Bi": 6754, "ube": 6755, "ively": 6756, "icine": 6757, "ecially": 6758, "oms": 6759, "elt": 6760, "ertainment": 6761, " vers": 6762, "ston": 6763, "kn": 6764, "atory": 6765, "ić": 6766, " proper": 6767, "ords": 6768, "obel": 6769, "sychology": 6770, "allery": 6771, "reater": 6772, "ricts": 6773, " crit": 6774, "rieved": 6775, "ength": 6776, "ras": 6777, "bar": 6778, "iterature": 6779, "ba": 6780, "lom": 6781, "IT": 6782, "ittle": 6783, "isions": 6784, " anal": 6785, "reas": 6786, "ops": 6787, "AAAA": 6788, "ends": 6789, "ns": 6790, "dependence": 6791, "20120": 6792, "ators": 6793, "hib": 6794, "empt": 6795, "enry": 6796, "Ag": 6797, "anet": 6798, "wide": 6799, "uthority": 6800, "uxembourg": 6801, "Mon": 6802, "especially": 6803, "low": 6804, "otter": 6805, "duce": 6806, " Fore": 6807, "ump": 6808, "bon": 6809, "ming": 6810, " invest": 6811, "occer": 6812, "rese": 6813, "102": 6814, " Kh": 6815, "yr": 6816, "PP": 6817, "obox": 6818, "nect": 6819, "ko": 6820, " Jos": 6821, "eth": 6822, "ean": 6823, "ros": 6824, "rick": 6825, " bi": 6826, " cy": 6827, "ques": 6828, "ader": 6829, "uture": 6830, "gian": 6831, "pped": 6832, "surance": 6833, "ski": 6834, "ecurity": 6835, "aker": 6836, " Kore": 6837, "itzerland": 6838, " fem": 6839, "tem": 6840, " separ": 6841, "gra": 6842, "ensity": 6843, "airs": 6844, "cf": 6845, "FL": 6846, "alle": 6847, "ples": 6848, "asing": 6849, "itiz": 6850, "hab": 6851, "rup": 6852, "isc": 6853, "Em": 6854, "nas": 6855, "rich": 6856, "vin": 6857, "ciences": 6858, "ips": 6859, "Met": 6860, "CN": 6861, "ocus": 6862, "Do": 6863, " cir": 6864, " phil": 6865, "At": 6866, "\n\nS": 6867, "Miss": 6868, " Sen": 6869, "utes": 6870, "ularly": 6871, "ieval": 6872, "artin": 6873, "20080": 6874, "ongo": 6875, "rele": 6876, "ippines": 6877, "vious": 6878, "merc": 6879, "Ste": 6880, "inds": 6881, "ety": 6882, " ide": 6883, " Polit": 6884, "RA": 6885, "ypt": 6886, "ademic": 6887, "bserv": 6888, "isk": 6889, "quare": 6890, "Med": 6891, "arden": 6892, "struct": 6893, "craft": 6894, "clud": 6895, "igen": 6896, "aves": 6897, " Pr": 6898, " fac": 6899, " dep": 6900, "cr": 6901, "aken": 6902, "ocal": 6903, "uckland": 6904, " Mor": 6905, "roy": 6906, "iding": 6907, " Ter": 6908, "orporation": 6909, " employ": 6910, "rees": 6911, "lete": 6912, "ending": 6913, "erald": 6914, " earli": 6915, "oliv": 6916, "yan": 6917, " arr": 6918, "ati": 6919, "histor": 6920, "erby": 6921, "ges": 6922, " Tr": 6923, "ewish": 6924, "EFA": 6925, "don": 6926, "Id": 6927, "ably": 6928, "tar": 6929, "atal": 6930, "overed": 6931, "230": 6932, " celebr": 6933, "ading": 6934, " fre": 6935, "osophy": 6936, "ements": 6937, "lines": 6938, "Rep": 6939, "oto": 6940, "che": 6941, "aniel": 6942, "stant": 6943, "Par": 6944, " Trans": 6945, "agn": 6946, "cd": 6947, " Sur": 6948, "mo": 6949, " hous": 6950, "estic": 6951, "ristol": 6952, "ror": 6953, "ien": 6954, "ottish": 6955, " av": 6956, "ios": 6957, "ils": 6958, "udd": 6959, " Uk": 6960, "writer": 6961, " Lab": 6962, "bit": 6963, "uries": 6964, "iro": 6965, "cla": 6966, "ternet": 6967, "cos": 6968, "po": 6969, " estim": 6970, "aren": 6971, "Mal": 6972, "ception": 6973, "aign": 6974, "arnival": 6975, "elen": 6976, "opt": 6977, "ixed": 6978, "oral": 6979, " Inter": 6980, " pur": 6981, "cb": 6982, "ero": 6983, "gl": 6984, "tee": 6985, "astle": 6986, "forman": 6987, "ologist": 6988, " meas": 6989, "idents": 6990, "imately": 6991, "Af": 6992, "ederation": 6993, " fig": 6994, " Def": 6995, "ecutive": 6996, "riculture": 6997, "opa": 6998, "isation": 6999, "Publ": 7000, " manufact": 7001, "erc": 7002, " Div": 7003, " deb": 7004, " broad": 7005, "loads": 7006, "eles": 7007, "ulti": 7008, "Pr": 7009, "otal": 7010, "nov": 7011, "Ital": 7012, "stud": 7013, "ises": 7014, " condition": 7015, "20090": 7016, "Br": 7017, "argest": 7018, "ffick": 7019, "inct": 7020, "arily": 7021, "issance": 7022, " repl": 7023, "mercial": 7024, "emor": 7025, "20100": 7026, "annel": 7027, " deg": 7028, "unting": 7029, "unning": 7030, "wAAQBAJ": 7031, "Rel": 7032, "gent": 7033, " vict": 7034, "oice": 7035, " inv": 7036, "ictoria": 7037, "posed": 7038, "ubs": 7039, "hol": 7040, "iga": 7041, "Stat": 7042, "DF": 7043, "iers": 7044, "quake": 7045, "130": 7046, "gypt": 7047, "rants": 7048, "ulf": 7049, "ribution": 7050, "van": 7051, "TS": 7052, "ades": 7053, " pers": 7054, "án": 7055, "ao": 7056, "uclear": 7057, "anning": 7058, "ience": 7059, " Leg": 7060, "uis": 7061, "mons": 7062, "kh": 7063, " Mus": 7064, "ving": 7065, "ED": 7066, "illboard": 7067, " tw": 7068, " colla": 7069, "ano": 7070, "hand": 7071, "elsh": 7072, " Mal": 7073, "division": 7074, "wan": 7075, "ilities": 7076, "PR": 7077, "ira": 7078, "ón": 7079, " occup": 7080, "onym": 7081, "Me": 7082, "Reg": 7083, "stitutions": 7084, " stre": 7085, "istance": 7086, "Bel": 7087, "aho": 7088, "vironmental": 7089, "112": 7090, " conc": 7091, " impro": 7092, "cro": 7093, "umbers": 7094, " emerg": 7095, " depend": 7096, " jo": 7097, "illage": 7098, "reedom": 7099, "fault": 7100, "atest": 7101, " Des": 7102, "20190": 7103, " cult": 7104, " init": 7105, "owers": 7106, "aud": 7107, "amm": 7108, "di": 7109, "ugos": 7110, "ply": 7111, "angelia": 7112, " dom": 7113, "sl": 7114, "Inter": 7115, "incip": 7116, "vince": 7117, "dr": 7118, "ummary": 7119, "ention": 7120, "AN": 7121, "otion": 7122, " Dem": 7123, "inent": 7124, "TO": 7125, "aghd": 7126, " sug": 7127, "mos": 7128, "eace": 7129, "urder": 7130, "lamic": 7131, "Hol": 7132, " fund": 7133, "rump": 7134, "aged": 7135, " gra": 7136, "oke": 7137, "imal": 7138, "aya": 7139, "oma": 7140, "arkiv": 7141, "Bl": 7142, "igin": 7143, "aze": 7144, " aff": 7145, " dyn": 7146, "ounced": 7147, "BS": 7148, "asion": 7149, " tourn": 7150, " Cons": 7151, "lah": 7152, "sm": 7153, "Cor": 7154, "uilding": 7155, "igenous": 7156, "icas": 7157, "enth": 7158, "sen": 7159, " Organ": 7160, "bank": 7161, "iment": 7162, "umbia": 7163, "utt": 7164, "iley": 7165, " treat": 7166, " launch": 7167, "ask": 7168, "hood": 7169, " Ref": 7170, "umn": 7171, "tour": 7172, "iger": 7173, "austral": 7174, "122": 7175, " pri": 7176, "uke": 7177, "oa": 7178, " Int": 7179, "iller": 7180, " Cap": 7181, "IO": 7182, "Number": 7183, " colon": 7184, "oj": 7185, "Histor": 7186, "FF": 7187, " respons": 7188, " avail": 7189, "ension": 7190, " proble": 7191, " protest": 7192, "ansas": 7193, "mittee": 7194, "pring": 7195, "raq": 7196, " defin": 7197, "porary": 7198, "103": 7199, "ergy": 7200, "rog": 7201, " wrest": 7202, "nv": 7203, "ooper": 7204, "iate": 7205, "AL": 7206, "ola": 7207, "iting": 7208, " mechan": 7209, "asons": 7210, " relation": 7211, "Cro": 7212, " legisl": 7213, "iplom": 7214, "structure": 7215, "iginal": 7216, "----": 7217, "140": 7218, "bury": 7219, " sn": 7220, "ugoslav": 7221, "ochi": 7222, "arning": 7223, "Bas": 7224, "lantic": 7225, "ronic": 7226, "ady": 7227, " lo": 7228, "20070": 7229, "than": 7230, " Sing": 7231, "urt": 7232, "lections": 7233, "atform": 7234, "109": 7235, "hatt": 7236, " vot": 7237, "aylor": 7238, " Id": 7239, "uge": 7240, "ounts": 7241, "\n\nM": 7242, " cand": 7243, "stitutional": 7244, "104": 7245, " Gen": 7246, "aval": 7247, " complet": 7248, "notes": 7249, " domin": 7250, "ector": 7251, " Fin": 7252, "amin": 7253, "orders": 7254, "ivity": 7255, "erbian": 7256, "avior": 7257, "oser": 7258, "commun": 7259, "stone": 7260, " cour": 7261, "migration": 7262, "avirus": 7263, "elling": 7264, "def": 7265, "perial": 7266, "AS": 7267, "onor": 7268, " jud": 7269, "ldest": 7270, "load": 7271, "cel": 7272, "ysics": 7273, " tro": 7274, "arus": 7275, "akistan": 7276, " dise": 7277, " dest": 7278, " Pre": 7279, "overy": 7280, "fn": 7281, "108": 7282, "VID": 7283, "Sam": 7284, "enaissance": 7285, "stitu": 7286, "irit": 7287, " Swed": 7288, "emical": 7289, "quart": 7290, "oeing": 7291, " arg": 7292, "amous": 7293, "rief": 7294, "There": 7295, "bro": 7296, "enger": 7297, "ulation": 7298, " rev": 7299, "iop": 7300, "eting": 7301, "ables": 7302, "mus": 7303, " decl": 7304, " bound": 7305, "opp": 7306, "eline": 7307, "itizens": 7308, "wealth": 7309, " Tem": 7310, "rban": 7311, "leges": 7312, "MS": 7313, " belie": 7314, "idity": 7315, "fficking": 7316, " pred": 7317, "ima": 7318, "icro": 7319, "thlet": 7320, "itted": 7321, "azeera": 7322, "istration": 7323, "ifa": 7324, "Eur": 7325, "quest": 7326, " respect": 7327, "ocument": 7328, "transl": 7329, "ker": 7330, "esh": 7331, "NC": 7332, "inet": 7333, "Sal": 7334, " surv": 7335, "Sup": 7336, " emp": 7337, "gh": 7338, " princip": 7339, "formance": 7340, "iech": 7341, " har": 7342, "rated": 7343, "roll": 7344, " App": 7345, "Cer": 7346, " ins": 7347, "quently": 7348, "ivals": 7349, "arent": 7350, "Kh": 7351, "vation": 7352, "aghdadi": 7353, " mach": 7354, "zech": 7355, "erve": 7356, "overnor": 7357, "iance": 7358, "erty": 7359, "anks": 7360, "uguese": 7361, "itect": 7362, "iko": 7363, "eff": 7364, "overs": 7365, " whe": 7366, "istical": 7367, "eds": 7368, "annot": 7369, "Ac": 7370, "ropical": 7371, "415": 7372, "standing": 7373, "IM": 7374, "usion": 7375, "edy": 7376, "Av": 7377, " op": 7378, "ador": 7379, "Off": 7380, " rap": 7381, "gi": 7382, " sit": 7383, " particip": 7384, "bo": 7385, "oronavirus": 7386, "marine": 7387, "ervation": 7388, " observ": 7389, "chie": 7390, "123": 7391, "Pal": 7392, "sing": 7393, "erd": 7394, "119": 7395, "Comp": 7396, " Sal": 7397, " inj": 7398, " Mac": 7399, " suggest": 7400, "rishna": 7401, "atur": 7402, "verse": 7403, "Ter": 7404, "hu": 7405, " deter": 7406, "flict": 7407, "ronom": 7408, "uals": 7409, " suff": 7410, "emic": 7411, "ema": 7412, "ecretary": 7413, "eep": 7414, "get": 7415, "uble": 7416, "indust": 7417, " Kn": 7418, "phere": 7419, "ogen": 7420, " Ben": 7421, "lem": 7422, "bes": 7423, "itude": 7424, "oles": 7425, " fa": 7426, " Sam": 7427, "115": 7428, "cest": 7429, " viol": 7430, " Ann": 7431, " Don": 7432, " norm": 7433, " br": 7434, "aza": 7435, "ripura": 7436, "afety": 7437, " collect": 7438, "miss": 7439, "ueen": 7440, " grad": 7441, " den": 7442, "UL": 7443, "sky": 7444, "athemat": 7445, "ibility": 7446, " regard": 7447, "obs": 7448, " gl": 7449, " Sub": 7450, " dev": 7451, "180": 7452, " sl": 7453, " defe": 7454, "Tr": 7455, " pot": 7456, "ificial": 7457, "116": 7458, "pts": 7459, "By": 7460, "ithuan": 7461, "ampions": 7462, "UR": 7463, "CC": 7464, " veh": 7465, "icks": 7466, "anth": 7467, "SS": 7468, "otterdam": 7469, "olivia": 7470, " Class": 7471, "amilies": 7472, "tenstein": 7473, "beral": 7474, "urrent": 7475, " enc": 7476, " myth": 7477, "mat": 7478, "hr": 7479, "acks": 7480, "uv": 7481, " Pers": 7482, "ares": 7483, " Del": 7484, " express": 7485, "ombia": 7486, "izing": 7487, "Her": 7488, "iechtenstein": 7489, "izations": 7490, "stead": 7491, "mal": 7492, "ieties": 7493, " approx": 7494, "mann": 7495, "lad": 7496, "rastructure": 7497, "kins": 7498, "etro": 7499, " exam": 7500, "Jac": 7501, "comm": 7502, " consist": 7503, " trib": 7504, " Work": 7505, "unter": 7506, "hou": 7507, "106": 7508, "anger": 7509, "Ang": 7510, "Ev": 7511, " Fl": 7512, "arliamentary": 7513, "ori": 7514, " er": 7515, "wegian": 7516, " stri": 7517, "Mem": 7518, "aps": 7519, "oring": 7520, " conduct": 7521, "ivic": 7522, " miss": 7523, "del": 7524, " surround": 7525, "Mac": 7526, "icated": 7527, "thur": 7528, "lean": 7529, " CO": 7530, "resp": 7531, " lik": 7532, "205": 7533, "pret": 7534, " Naz": 7535, " connect": 7536, "ylon": 7537, "rice": 7538, "\n\nD": 7539, "uj": 7540, "cz": 7541, "IA": 7542, " gain": 7543, "monwealth": 7544, "Rob": 7545, "asty": 7546, "fall": 7547, "gon": 7548, "tect": 7549, "king": 7550, "oys": 7551, "DA": 7552, "ET": 7553, "agement": 7554, "anal": 7555, "ties": 7556, "bre": 7557, " farm": 7558, "aints": 7559, "urd": 7560, "avin": 7561, "Polit": 7562, "reaty": 7563, "ye": 7564, "Mat": 7565, "riz": 7566, "Pat": 7567, "onent": 7568, "igation": 7569, "ione": 7570, "Econom": 7571, "iant": 7572, "Aust": 7573, "uls": 7574, " Ev": 7575, "idate": 7576, " motor": 7577, " Pan": 7578, " Play": 7579, "ricultural": 7580, " phot": 7581, "RO": 7582, "real": 7583, " Pat": 7584, "ounter": 7585, "Tra": 7586, "orough": 7587, "208": 7588, "ceania": 7589, " concern": 7590, " neigh": 7591, " mus": 7592, "break": 7593, "cular": 7594, "oration": 7595, "onesia": 7596, " Aff": 7597, "ecies": 7598, "lying": 7599, "ospital": 7600, " Bal": 7601, "elves": 7602, "thodox": 7603, "ellow": 7604, "insk": 7605, "add": 7606, "kin": 7607, "ustain": 7608, "tex": 7609, "western": 7610, "outledge": 7611, "ithuanian": 7612, "reement": 7613, "fal": 7614, " mig": 7615, " Sim": 7616, "stan": 7617, "ervices": 7618, "pers": 7619, "orph": 7620, "Wik": 7621, " achie": 7622, "ui": 7623, "Gen": 7624, "wer": 7625, "anta": 7626, "Dem": 7627, "crease": 7628, "illy": 7629, "block": 7630, " numer": 7631, "endum": 7632, "imum": 7633, " decla": 7634, "loom": 7635, "acters": 7636, "ho": 7637, "foot": 7638, "Rev": 7639, " Dr": 7640, "Des": 7641, "inner": 7642, "wich": 7643, " affect": 7644, "icles": 7645, " ill": 7646, "overty": 7647, " inhab": 7648, "Rec": 7649, "product": 7650, " paint": 7651, "ici": 7652, "earth": 7653, "atriots": 7654, " rem": 7655, "agon": 7656, "iab": 7657, "scription": 7658, "ancy": 7659, "rn": 7660, "peror": 7661, "ora": 7662, "204": 7663, "RE": 7664, "olis": 7665, "chen": 7666, "urkey": 7667, "una": 7668, " ser": 7669, "osc": 7670, " nar": 7671, "ells": 7672, " Indust": 7673, "ning": 7674, "ken": 7675, "ika": 7676, "overe": 7677, "ez": 7678, "Mah": 7679, "riage": 7680, "kw": 7681, "undred": 7682, " mod": 7683, " bo": 7684, " Cro": 7685, "idae": 7686, "wanda": 7687, "214": 7688, "multi": 7689, " Ber": 7690, " depart": 7691, "olymp": 7692, "care": 7693, "190": 7694, "itter": 7695, "found": 7696, "emi": 7697, "overeign": 7698, "urb": 7699, "put": 7700, "urname": 7701, "awa": 7702, "ella": 7703, " toge": 7704, "inking": 7705, "AAA": 7706, " transl": 7707, " diff": 7708, " sm": 7709, "Res": 7710, " cycl": 7711, "uous": 7712, "eban": 7713, "20200": 7714, " Mass": 7715, "uer": 7716, "itors": 7717, "PN": 7718, "avi": 7719, "Sub": 7720, "Georg": 7721, "very": 7722, "FI": 7723, " nor": 7724, "Ann": 7725, " capt": 7726, "week": 7727, "rep": 7728, "ributed": 7729, "onia": 7730, "128": 7731, " Mad": 7732, "eless": 7733, "panic": 7734, "edral": 7735, "160": 7736, " Raj": 7737, " Found": 7738, "ila": 7739, " sus": 7740, "rance": 7741, " Eur": 7742, "opy": 7743, "anced": 7744, "var": 7745}